{
  "version": "1.0",
  "truncation": null,
  "padding": null,
  "added_tokens": [
    {
      "id": 0,
      "content": "<|pad|>",
      "single_word": false,
      "lstrip": false,
      "rstrip": false,
      "normalized": false,
      "special": true
    },
    {
      "id": 1,
      "content": "<|file_start|>",
      "single_word": false,
      "lstrip": false,
      "rstrip": false,
      "normalized": false,
      "special": true
    },
    {
      "id": 2,
      "content": "<|file_end|>",
      "single_word": false,
      "lstrip": false,
      "rstrip": false,
      "normalized": false,
      "special": true
    }
  ],
  "normalizer": {
    "type": "NFKC"
  },
  "pre_tokenizer": {
    "type": "ByteLevel",
    "add_prefix_space": false,
    "trim_offsets": true,
    "use_regex": false
  },
  "post_processor": null,
  "decoder": {
    "type": "ByteLevel",
    "add_prefix_space": true,
    "trim_offsets": true,
    "use_regex": true
  },
  "model": {
    "type": "BPE",
    "dropout": null,
    "unk_token": null,
    "continuing_subword_prefix": null,
    "end_of_word_suffix": null,
    "fuse_unk": false,
    "byte_fallback": false,
    "ignore_merges": false,
    "vocab": {
      "<|pad|>": 0,
      "<|file_start|>": 1,
      "<|file_end|>": 2,
      "!": 3,
      "\"": 4,
      "#": 5,
      "$": 6,
      "%": 7,
      "&": 8,
      "'": 9,
      "(": 10,
      ")": 11,
      "*": 12,
      "+": 13,
      ",": 14,
      "-": 15,
      ".": 16,
      "/": 17,
      "0": 18,
      "1": 19,
      "2": 20,
      "3": 21,
      "4": 22,
      "5": 23,
      "6": 24,
      "7": 25,
      "8": 26,
      "9": 27,
      ":": 28,
      ";": 29,
      "<": 30,
      "=": 31,
      ">": 32,
      "?": 33,
      "@": 34,
      "A": 35,
      "B": 36,
      "C": 37,
      "D": 38,
      "E": 39,
      "F": 40,
      "G": 41,
      "H": 42,
      "I": 43,
      "J": 44,
      "K": 45,
      "L": 46,
      "M": 47,
      "N": 48,
      "O": 49,
      "P": 50,
      "Q": 51,
      "R": 52,
      "S": 53,
      "T": 54,
      "U": 55,
      "V": 56,
      "W": 57,
      "X": 58,
      "Y": 59,
      "Z": 60,
      "[": 61,
      "\\": 62,
      "]": 63,
      "^": 64,
      "_": 65,
      "`": 66,
      "a": 67,
      "b": 68,
      "c": 69,
      "d": 70,
      "e": 71,
      "f": 72,
      "g": 73,
      "h": 74,
      "i": 75,
      "j": 76,
      "k": 77,
      "l": 78,
      "m": 79,
      "n": 80,
      "o": 81,
      "p": 82,
      "q": 83,
      "r": 84,
      "s": 85,
      "t": 86,
      "u": 87,
      "v": 88,
      "w": 89,
      "x": 90,
      "y": 91,
      "z": 92,
      "{": 93,
      "|": 94,
      "}": 95,
      "~": 96,
      "¡": 97,
      "¢": 98,
      "£": 99,
      "¤": 100,
      "¥": 101,
      "¦": 102,
      "§": 103,
      "¨": 104,
      "©": 105,
      "ª": 106,
      "«": 107,
      "¬": 108,
      "®": 109,
      "¯": 110,
      "°": 111,
      "±": 112,
      "²": 113,
      "³": 114,
      "´": 115,
      "µ": 116,
      "¶": 117,
      "·": 118,
      "¸": 119,
      "¹": 120,
      "º": 121,
      "»": 122,
      "¼": 123,
      "½": 124,
      "¾": 125,
      "¿": 126,
      "Â": 127,
      "Ã": 128,
      "Ä": 129,
      "Å": 130,
      "Æ": 131,
      "Ç": 132,
      "È": 133,
      "É": 134,
      "Ê": 135,
      "Ë": 136,
      "Ì": 137,
      "Î": 138,
      "Ï": 139,
      "Ð": 140,
      "Ñ": 141,
      "Ó": 142,
      "×": 143,
      "à": 144,
      "á": 145,
      "â": 146,
      "ã": 147,
      "ä": 148,
      "å": 149,
      "æ": 150,
      "ç": 151,
      "è": 152,
      "é": 153,
      "ê": 154,
      "ë": 155,
      "ì": 156,
      "í": 157,
      "ï": 158,
      "ð": 159,
      "Ą": 160,
      "ĉ": 161,
      "Ċ": 162,
      "č": 163,
      "ě": 164,
      "Ġ": 165,
      "Ģ": 166,
      "ģ": 167,
      "Ĥ": 168,
      "ĥ": 169,
      "Ħ": 170,
      "ħ": 171,
      "Ĩ": 172,
      "ĩ": 173,
      "Ī": 174,
      "ī": 175,
      "Ĭ": 176,
      "ĭ": 177,
      "Į": 178,
      "į": 179,
      "İ": 180,
      "ı": 181,
      "Ĳ": 182,
      "ĳ": 183,
      "Ĵ": 184,
      "ĵ": 185,
      "Ķ": 186,
      "ķ": 187,
      "ĸ": 188,
      "Ĺ": 189,
      "ĺ": 190,
      "Ļ": 191,
      "ļ": 192,
      "Ľ": 193,
      "ľ": 194,
      "Ŀ": 195,
      "ŀ": 196,
      "Ł": 197,
      "ł": 198,
      "Ń": 199,
      "ĠĠ": 200,
      "ĠĠĠĠ": 201,
      "ĠĠĠĠĠĠĠĠ": 202,
      "ĊĠĠĠĠĠĠĠĠ": 203,
      "eĠ": 204,
      "in": 205,
      "on": 206,
      "re": 207,
      "at": 208,
      "se": 209,
      "sĠ": 210,
      ",Ġ": 211,
      "th": 212,
      "er": 213,
      "or": 214,
      "st": 215,
      "\"\"": 216,
      "en": 217,
      "ar": 218,
      "fĠ": 219,
      "ĊĠĠĠĠ": 220,
      "al": 221,
      "tĠ": 222,
      "an": 223,
      "dĠ": 224,
      "=Ġ": 225,
      "am": 226,
      "de": 227,
      "ĊĠĠĠĠĠĠĠĠĠĠĠĠ": 228,
      "ion": 229,
      "theĠ": 230,
      "le": 231,
      "ur": 232,
      ":Ġ": 233,
      "\"\"\"": 234,
      "ĊĠĠĠĠĠĠĠĠĠĠĠĠĠĠĠĠ": 235,
      "sel": 236,
      "to": 237,
      "ct": 238,
      "self": 239,
      "fi": 240,
      "ing": 241,
      "et": 242,
      "it": 243,
      "ro": 244,
      "ce": 245,
      "orĠ": 246,
      "co": 247,
      "--": 248,
      "aĠ": 249,
      "ch": 250,
      "yĠ": 251,
      "self.": 252,
      "ifĠ": 253,
      "lo": 254,
      "urn": 255,
      "isĠ": 256,
      "toĠ": 257,
      "ent": 258,
      "s.": 259,
      "un": 260,
      "ue": 261,
      "li": 262,
      "dat": 263,
      "Ġ=Ġ": 264,
      "as": 265,
      "inĠ": 266,
      "te": 267,
      "par": 268,
      "ret": 269,
      "di": 270,
      "ofĠ": 271,
      "ra": 272,
      "el": 273,
      "ĊĊĠĠĠĠĠĠĠĠ": 274,
      "id": 275,
      "no": 276,
      "con": 277,
      "pe": 278,
      "return": 279,
      "):": 280,
      "ul": 281,
      "im": 282,
      "str": 283,
      "val": 284,
      "um": 285,
      "ame": 286,
      "forĠ": 287,
      "ex": 288,
      "ingĠ": 289,
      "ad": 290,
      ")ĊĠĠĠĠĠĠĠĠ": 291,
      "``": 292,
      "is": 293,
      "ut": 294,
      "res": 295,
      "param": 296,
      "erĠ": 297,
      "il": 298,
      "ĊĊĠĠĠĠ": 299,
      "ab": 300,
      "ag": 301,
      "#Ġ": 302,
      "ation": 303,
      ")Ġ": 304,
      "ty": 305,
      "up": 306,
      "name": 307,
      "ck": 308,
      "andĠ": 309,
      "edĠ": 310,
      "returnĠ": 311,
      "es": 312,
      "ap": 313,
      ":ĊĠĠĠĠĠĠĠĠĠĠĠĠ": 314,
      "one": 315,
      "arg": 316,
      "tr": 317,
      "ed": 318,
      "stĠ": 319,
      "mo": 320,
      "defĠ": 321,
      "pt": 322,
      "for": 323,
      "lĠ": 324,
      "ser": 325,
      "ction": 326,
      "\"\"\"Ċ": 327,
      "em": 328,
      "notĠ": 329,
      "None": 330,
      "----": 331,
      "ob": 332,
      "po": 333,
      "ke": 334,
      "\"\"\"ĊdefĠ": 335,
      "Th": 336,
      "leĠ": 337,
      "ver": 338,
      "int": 339,
      "ĊĠĠĠĠĠĠĠĠ\"\"\"": 340,
      "ĊĠĠĠĠĠĠĠĠĠĠĠĠĠĠĠĠĠĠĠĠĠĠĠĠ": 341,
      "pat": 342,
      "pro": 343,
      "com": 344,
      "paramĠ": 345,
      "mat": 346,
      ".Ġ": 347,
      "get": 348,
      "('": 349,
      "iv": 350,
      "data": 351,
      "qu": 352,
      "e_": 353,
      "ith": 354,
      ">>": 355,
      "()": 356,
      "ig": 357,
      ":paramĠ": 358,
      "fa": 359,
      "mĠ": 360,
      "cl": 361,
      "obj": 362,
      "ĉĉ": 363,
      "anĠ": 364,
      "do": 365,
      "file": 366,
      "path": 367,
      "ĊĠĠĠĠĠĠĠĠĠĠĠĠĠĠĠĠĠĠĠĠ": 368,
      "pl": 369,
      "ption": 370,
      "t_": 371,
      "d_": 372,
      "self._": 373,
      "sion": 374,
      "cal": 375,
      "value": 376,
      "ne": 377,
      "esĠ": 378,
      "beĠ": 379,
      "ment": 380,
      "ma": 381,
      ")ĊĠĠĠĠ": 382,
      "',Ġ": 383,
      "ol": 384,
      "with": 385,
      "type": 386,
      "fro": 387,
      "ror": 388,
      "s_": 389,
      "enĠ": 390,
      "['": 391,
      "(self": 392,
      "']": 393,
      "asĠ": 394,
      "sh": 395,
      "ect": 396,
      "-Ġ": 397,
      "ult": 398,
      ">Ġ": 399,
      ":ĊĠĠĠĠĠĠĠĠ": 400,
      "key": 401,
      "vi": 402,
      "':Ġ": 403,
      "ri": 404,
      "atĠ": 405,
      "s,Ġ": 406,
      "sĠ=Ġ": 407,
      "ren": 408,
      "len": 409,
      "iz": 410,
      "per": 411,
      "ub": 412,
      "TheĠ": 413,
      "ceĠ": 414,
      "tim": 415,
      "ass": 416,
      "wh": 417,
      "ci": 418,
      "stan": 419,
      "me": 420,
      "ameĠ": 421,
      "ĠinĠ": 422,
      "ter": 423,
      "bu": 424,
      "que": 425,
      "set": 426,
      "string": 427,
      "list": 428,
      "seĠ": 429,
      "end": 430,
      "bo": 431,
      "pa": 432,
      "cont": 433,
      "ofĠtheĠ": 434,
      ")ĊĠĠĠĠĠĠĠĠĠĠĠĠ": 435,
      "fromĠ": 436,
      "withĠ": 437,
      "ple": 438,
      "entĠ": 439,
      "log": 440,
      ".ĊĊĠĠĠĠĠĠĠĠ": 441,
      "chĠ": 442,
      "):ĊĠĠĠĠĠĠĠĠ\"\"\"": 443,
      "Er": 444,
      "s(": 445,
      "our": 446,
      "col": 447,
      "out": 448,
      "ueĠ": 449,
      "por": 450,
      "lin": 451,
      "app": 452,
      "able": 453,
      "ist": 454,
      "Tr": 455,
      "Ret": 456,
      "y_": 457,
      "peĠ": 458,
      "ĠisĠ": 459,
      "ate": 460,
      "and": 461,
      "get_": 462,
      "ateĠ": 463,
      "ces": 464,
      "ec": 465,
      "fun": 466,
      ":ĊĠĠĠĠĠĠĠĠĠĠĠĠĠĠĠĠ": 467,
      "ord": 468,
      "num": 469,
      "(\"": 470,
      "ĊĠĠĠĠ\"\"\"": 471,
      "(self,Ġ": 472,
      "''": 473,
      "Return": 474,
      "ba": 475,
      "**": 476,
      "fig": 477,
      "Error": 478,
      "'Ġ": 479,
      "ang": 480,
      "ou": 481,
      "fo": 482,
      "pre": 483,
      ".ĊĠĠĠĠĠĠĠĠ": 484,
      "+Ġ": 485,
      "onĠ": 486,
      "format": 487,
      "ationĠ": 488,
      "typeĠ": 489,
      "ip": 490,
      "==Ġ": 491,
      "object": 492,
      "alĠ": 493,
      "av": 494,
      "iseĠ": 495,
      "instan": 496,
      "ĠĠĠ": 497,
      "thatĠ": 498,
      "))": 499,
      "In": 500,
      "pon": 501,
      "Ċĉĉ": 502,
      "tex": 503,
      "_id": 504,
      "au": 505,
      "spe": 506,
      "he": 507,
      "Re": 508,
      "p.": 509,
      ">>>Ġ": 510,
      "quest": 511,
      "thisĠ": 512,
      "py": 513,
      "ise": 514,
      "else": 515,
      ",ĊĠĠĠĠĠĠĠĠĠĠĠĠ": 516,
      "itĠ": 517,
      "lyĠ": 518,
      "True": 519,
      "ic": 520,
      "put": 521,
      "alse": 522,
      "..": 523,
      "pr": 524,
      "e.": 525,
      "wĠ": 526,
      "sc": 527,
      "tho": 528,
      ",ĊĠĠĠĠĠĠĠĠĠĠĠĠĠĠĠĠĠĠĠĠĠĠĠĠ": 529,
      "nameĠ": 530,
      "==": 531,
      "oĠ": 532,
      "raiseĠ": 533,
      "eter": 534,
      "00": 535,
      "mode": 536,
      "cur": 537,
      "config": 538,
      ".\"\"\"ĊdefĠ": 539,
      "read": 540,
      "_s": 541,
      "valueĠ": 542,
      "dataĠ": 543,
      "areĠ": 544,
      "e(": 545,
      "Ġ(": 546,
      ",ĊĠĠĠĠĠĠĠĠ": 547,
      "listĠ": 548,
      "dict": 549,
      "cre": 550,
      "=None": 551,
      "s[": 552,
      "item": 553,
      "False": 554,
      "ĠtoĠ": 555,
      ".ĊĊĠĠĠĠ": 556,
      "dex": 557,
      "exce": 558,
      ")ĊĊĠĠĠĠĠĠĠĠ": 559,
      "user": 560,
      "illĠ": 561,
      "star": 562,
      "defa": 563,
      "attr": 564,
      "fiel": 565,
      "ff": 566,
      "##": 567,
      "IfĠ": 568,
      "ĊĠĠĠĠĠĠĠĠifĠ": 569,
      "request": 570,
      "sit": 571,
      "ĠĠĠĠĠĠĠĠĠĠĠĠĠĠĠĠ": 572,
      "min": 573,
      "time": 574,
      "fin": 575,
      "ses": 576,
      "tĠ=Ġ": 577,
      "om": 578,
      "metho": 579,
      "):ĊĠĠĠĠĠĠĠĠĠĠĠĠ": 580,
      "ac": 581,
      "',Ġ'": 582,
      "arra": 583,
      "option": 584,
      "_name": 585,
      "sub": 586,
      "Ex": 587,
      "0]": 588,
      "kw": 589,
      "wor": 590,
      "url": 591,
      "sedĠ": 592,
      "etĠ": 593,
      "args": 594,
      "willĠ": 595,
      "ign": 596,
      "sĠtheĠ": 597,
      "sĠtoĠ": 598,
      "function": 599,
      "idĠ": 600,
      "ht": 601,
      "respon": 602,
      "be": 603,
      "instance": 604,
      "op": 605,
      "index": 606,
      "form": 607,
      "deĠ": 608,
      "ource": 609,
      "speci": 610,
      "sĊĠĠĠĠĠĠĠĠ": 611,
      "age": 612,
      "ti": 613,
      "0.": 614,
      "np.": 615,
      "raise": 616,
      "ableĠ": 617,
      "var": 618,
      "comm": 619,
      "ThisĠ": 620,
      "allĠ": 621,
      "s:Ġ": 622,
      "roup": 623,
      "\",Ġ": 624,
      "),Ġ": 625,
      "byĠ": 626,
      "sen": 627,
      "Con": 628,
      "\"Ġ": 629,
      "ain": 630,
      "stat": 631,
      "oneĠ": 632,
      "ev": 633,
      "Par": 634,
      "``Ġ": 635,
      "ument": 636,
      "er.": 637,
      "):ĊĠĠĠĠ\"\"\"": 638,
      "code": 639,
      "Id": 640,
      "giv": 641,
      "us": 642,
      "{}": 643,
      "la": 644,
      ":`": 645,
      "tem": 646,
      "ure": 647,
      "gen": 648,
      "Ar": 649,
      "fileĠ": 650,
      "ca": 651,
      "the": 652,
      "result": 653,
      "ok": 654,
      ".ĊĠĠĠĠ": 655,
      "`Ġ": 656,
      "quer": 657,
      "='": 658,
      "low": 659,
      "numb": 660,
      "ĊĊĠĠĠĠĠĠĠĠĠĠĠĠ": 661,
      "*Ġ": 662,
      ")ĊĊĠĠĠĠ": 663,
      "ph": 664,
      "max": 665,
      "inĠtheĠ": 666,
      "]Ġ=Ġ": 667,
      "che": 668,
      "len(": 669,
      "coun": 670,
      "Val": 671,
      "ib": 672,
      "ask": 673,
      "pu": 674,
      ":return": 675,
      "čĊĠĠĠĠĠĠĠĠ": 676,
      "act": 677,
      "_m": 678,
      "ele": 679,
      "sy": 680,
      "model": 681,
      "back": 682,
      "ot": 683,
      "rit": 684,
      "ustĠ": 685,
      "call": 686,
      "--------": 687,
      ",ĊĠĠĠĠĠĠĠĠĠĠĠĠĠĠĠĠ": 688,
      "add": 689,
      "text": 690,
      "run": 691,
      "ĊĠĠĠĠĠĠĠĠ\"\"\"ĊĠĠĠĠĠĠĠĠ": 692,
      "ta": 693,
      "1]": 694,
      "):Ġ": 695,
      ".format": 696,
      "auth": 697,
      "ptĠ": 698,
      "all": 699,
      "sĊĠĠĠĠ": 700,
      "pi": 701,
      "we": 702,
      "setĠ": 703,
      "er_": 704,
      "append": 705,
      "ess": 706,
      "class": 707,
      "error": 708,
      "AĠ": 709,
      "[0]": 710,
      "group": 711,
      "listĠofĠ": 712,
      "und": 713,
      "try": 714,
      "reg": 715,
      "ample": 716,
      "fe": 717,
      "pla": 718,
      "s:ĊĠĠĠĠĠĠĠĠĠĠĠĠ": 719,
      "__": 720,
      "eta": 721,
      ":ĠĠ": 722,
      "%s": 723,
      ".format(": 724,
      "ext": 725,
      "node": 726,
      "curren": 727,
      "Arg": 728,
      "eĠtheĠ": 729,
      "givenĠ": 730,
      ").": 731,
      "):ĊĠĠĠĠĠĠĠĠ": 732,
      "version": 733,
      "dir": 734,
      "ho": 735,
      "field": 736,
      "0,Ġ": 737,
      "ype": 738,
      "posit": 739,
      "cor": 740,
      "atedĠ": 741,
      "ĠforĠ": 742,
      "):ĊĠĠĠĠĠĠĠĠ\"\"\"ĊĠĠĠĠĠĠĠĠ": 743,
      "lic": 744,
      "specifi": 745,
      "array": 746,
      "clu": 747,
      "updat": 748,
      "work": 749,
      "inter": 750,
      "ultĠ": 751,
      "info": 752,
      "fil": 753,
      "ile": 754,
      "RE": 755,
      "adĠ": 756,
      "son": 757,
      "ageĠ": 758,
      ":typeĠ": 759,
      "head": 760,
      "s=": 761,
      "port": 762,
      "kwargs": 763,
      "wn": 764,
      "check": 765,
      "fl": 766,
      "s:": 767,
      "scri": 768,
      "ectĠ": 769,
      "load": 770,
      ".ĊĠĠĠĠĠĠĠĠĠĠĠĠ": 771,
      "ition": 772,
      "sho": 773,
      ")ĊĠĠĠĠĠĠĠĠĠĠĠĠĠĠĠĠ": 774,
      "sup": 775,
      "ctĠ": 776,
      "dire": 777,
      "ax": 778,
      "sĠaĠ": 779,
      "red": 780,
      "umn": 781,
      "match": 782,
      "toĠtheĠ": 783,
      "ĠandĠ": 784,
      "ifĠnotĠ": 785,
      "Param": 786,
      "()ĊĠĠĠĠĠĠĠĠ": 787,
      "new": 788,
      "methodĠ": 789,
      "append(": 790,
      "row": 791,
      "tag": 792,
      "mustĠ": 793,
      "flo": 794,
      "sid": 795,
      "siz": 796,
      "ctor": 797,
      "qui": 798,
      "writ": 799,
      "ID": 800,
      "exceptĠ": 801,
      "arch": 802,
      "':Ġ'": 803,
      "ON": 804,
      "os.": 805,
      "(self.": 806,
      "set_": 807,
      "se_": 808,
      "whi": 809,
      "tedĠ": 810,
      "lock": 811,
      "du": 812,
      "raise:ĠĠ": 813,
      "ingĠtheĠ": 814,
      "redĠ": 815,
      "oth": 816,
      "1,Ġ": 817,
      "elifĠ": 818,
      "session": 819,
      "mov": 820,
      "mess": 821,
      "[]": 822,
      "column": 823,
      "canĠ": 824,
      "logg": 825,
      "'''": 826,
      "ĊĠĠĠĠ:paramĠ": 827,
      "=None,Ġ": 828,
      "ans": 829,
      "der": 830,
      "ĊĠĠĠĠĠĠĠĠraise:ĠĠ": 831,
      "default": 832,
      ",Ġ'": 833,
      "De": 834,
      "start": 835,
      "ull": 836,
      "lab": 837,
      "portĠ": 838,
      "')": 839,
      "parameter": 840,
      ":ĊĠĠĠĠĠĠĠĠĠĠĠĠĠĠĠĠĠĠĠĠ": 841,
      "Value": 842,
      "aryĠ": 843,
      "St": 844,
      "putĠ": 845,
      "Parameter": 846,
      "whichĠ": 847,
      "ir": 848,
      "by": 849,
      "uldĠ": 850,
      "rang": 851,
      "hand": 852,
      "isĠnotĠ": 853,
      "clas": 854,
      "mentĠ": 855,
      "contain": 856,
      "vari": 857,
      "json": 858,
      "intĠ": 859,
      "jo": 860,
      "ed_": 861,
      "ĊĠĠĠĠĠĠ": 862,
      "1.": 863,
      "cli": 864,
      "gra": 865,
      "Type": 866,
      "ouĠ": 867,
      "to_": 868,
      "ER": 869,
      "ibu": 870,
      "c_": 871,
      "print": 872,
      "keyĠ": 873,
      "forĠtheĠ": 874,
      "filen": 875,
      "Lo": 876,
      "ail": 877,
      "cat": 878,
      "quen": 879,
      "ĊĠĠĠĠĠĠĠĠ:paramĠ": 880,
      "st_": 881,
      "ibute": 882,
      "====": 883,
      ".s": 884,
      "p_": 885,
      "stringĠ": 886,
      "exist": 887,
      "type:Ġ": 888,
      "Dat": 889,
      "man": 890,
      "output": 891,
      "ĊĠĠĠĠ\"\"\"ĊĠĠĠĠ": 892,
      "if": 893,
      "####": 894,
      "table": 895,
      ":return:Ġ": 896,
      "label": 897,
      "fix": 898,
      "wa": 899,
      "ĊĠĠĠĠĠĠĠĠ#Ġ": 900,
      "objectĠ": 901,
      "dis": 902,
      "Ġ-Ġ": 903,
      "numberĠ": 904,
      "aseĠ": 905,
      "sĠareĠ": 906,
      "cond": 907,
      "content": 908,
      "Ġ+Ġ": 909,
      ",ĊĠĠĠĠĠĠĠĠĠĠĠĠ'": 910,
      "ial": 911,
      "gth": 912,
      "dedĠ": 913,
      "\":Ġ": 914,
      "tra": 915,
      "ea": 916,
      "[\"": 917,
      "ity": 918,
      "doc": 919,
      "ifi": 920,
      "gener": 921,
      "ĠtheĠ": 922,
      "ject": 923,
      "IN": 924,
      "proces": 925,
      "ST": 926,
      "argument": 927,
      "%Ġ": 928,
      "else:ĊĠĠĠĠĠĠĠĠĠĠĠĠ": 929,
      "plement": 930,
      "ron": 931,
      "tup": 932,
      "fir": 933,
      "isinstance": 934,
      "+=Ġ": 935,
      ")ĊĠĠĠĠĠĠĠĠreturnĠ": 936,
      "ate_": 937,
      "']Ġ=Ġ": 938,
      "float": 939,
      "...": 940,
      "response": 941,
      "join": 942,
      "pass": 943,
      "gr": 944,
      "Ġ==Ġ": 945,
      ":ĠTheĠ": 946,
      "word": 947,
      ":class": 948,
      "iveĠ": 949,
      "vice": 950,
      "plo": 951,
      "newĠ": 952,
      ".get": 953,
      "bin": 954,
      "sor": 955,
      "isinstance(": 956,
      "point": 957,
      "conne": 958,
      "so": 959,
      "AT": 960,
      "tok": 961,
      "m_": 962,
      ":class:`": 963,
      "ly": 964,
      "iter": 965,
      "su": 966,
      "'sĠ": 967,
      "ep": 968,
      "sĠinĠ": 969,
      "func": 970,
      "ĠĠĠĠĠ": 971,
      "ance": 972,
      "query": 973,
      "mustĠbeĠ": 974,
      "useĠ": 975,
      "usedĠ": 976,
      "Name": 977,
      "):ĊĠĠĠĠĠĠĠĠĠĠĠĠĠĠĠĠ": 978,
      "osid": 979,
      "is_": 980,
      "Se": 981,
      "\\n": 982,
      "action": 983,
      "ereĠ": 984,
      "|'": 985,
      "header": 986,
      "string'": 987,
      "_path": 988,
      "s.Ġ": 989,
      "ĊĠĠ": 990,
      "input": 991,
      "api": 992,
      "|Ġ": 993,
      "eĠ=Ġ": 994,
      "sĠ(": 995,
      ",ĊĠĠĠĠĠĠĠĠĠĠĠĠĠĠĠĠĠĠĠĠ": 996,
      "'|'": 997,
      "count": 998,
      "targ": 999,
      "sĠandĠ": 1000,
      "ception": 1001,
      "willĠbeĠ": 1002,
      "has": 1003,
      "plit": 1004,
      "map": 1005,
      "ted": 1006,
      "ary": 1007,
      "diction": 1008,
      "_file": 1009,
      "Un": 1010,
      "sign": 1011,
      "No": 1012,
      "mis": 1013,
      "sĠofĠ": 1014,
      "pli": 1015,
      "Ċĉ": 1016,
      "SĠ": 1017,
      "event": 1018,
      "igh": 1019,
      "idat": 1020,
      "Exception": 1021,
      "ase": 1022,
      "hav": 1023,
      "templ": 1024,
      "ran": 1025,
      "ms": 1026,
      "use": 1027,
      "outĠ": 1028,
      "db": 1029,
      "ug": 1030,
      "str(": 1031,
      "oreĠ": 1032,
      "sha": 1033,
      "element": 1034,
      "ml": 1035,
      "onlyĠ": 1036,
      "path.": 1037,
      "čĊĠĠĠĠ": 1038,
      "Ad": 1039,
      "teĠ": 1040,
      "ĠofĠ": 1041,
      "optional": 1042,
      "paren": 1043,
      "En": 1044,
      "rel": 1045,
      "Pro": 1046,
      "line": 1047,
      "block": 1048,
      "ll": 1049,
      "ry": 1050,
      "filter": 1051,
      "ureĠ": 1052,
      "keĠ": 1053,
      "eachĠ": 1054,
      "=True": 1055,
      "\",Ġ\"": 1056,
      "trans": 1057,
      "char": 1058,
      "umentĠ": 1059,
      "12": 1060,
      "valid": 1061,
      "htt": 1062,
      "Ġ:Ġ": 1063,
      "length": 1064,
      "Ke": 1065,
      "bug": 1066,
      "ge": 1067,
      "Data": 1068,
      "sequen": 1069,
      "\"\"\"ĊĠĠĠĠĠĠĠĠ": 1070,
      "**kwargs": 1071,
      "weĠ": 1072,
      "err": 1073,
      "ild": 1074,
      "{'": 1075,
      "vel": 1076,
      "youĠ": 1077,
      "s)": 1078,
      "--Ġ": 1079,
      "')ĊĠĠĠĠĠĠĠĠ": 1080,
      "importĠ": 1081,
      "fromĠtheĠ": 1082,
      "_type": 1083,
      "Res": 1084,
      "chem": 1085,
      "sĠforĠ": 1086,
      "s:ĊĠĠĠĠĠĠĠĠ": 1087,
      "ator": 1088,
      "requi": 1089,
      "osid.": 1090,
      "fol": 1091,
      "resource": 1092,
      "meta": 1093,
      "da": 1094,
      "2.": 1095,
      "filename": 1096,
      "method": 1097,
      "----------": 1098,
      "descri": 1099,
      "bool": 1100,
      "name,Ġ": 1101,
      "exception": 1102,
      "defin": 1103,
      "of": 1104,
      "noĠ": 1105,
      "lim": 1106,
      "ET": 1107,
      "cation": 1108,
      "Ċĉĉĉ": 1109,
      "withĠtheĠ": 1110,
      "implement": 1111,
      "sto": 1112,
      "ityĠ": 1113,
      "\"]": 1114,
      "ew": 1115,
      "net": 1116,
      "token": 1117,
      "ValueError": 1118,
      "sing": 1119,
      "//": 1120,
      "task": 1121,
      "join(": 1122,
      "t.": 1123,
      "shouldĠ": 1124,
      "ref": 1125,
      "place": 1126,
      "uni": 1127,
      "ive": 1128,
      "ream": 1129,
      "comple": 1130,
      "=False": 1131,
      "remov": 1132,
      "add_": 1133,
      "Cre": 1134,
      "terĠ": 1135,
      "ĠorĠ": 1136,
      "Ġ=Ġself.": 1137,
      "UR": 1138,
      "):ĊĠĠĠĠ\"\"\"ĊĠĠĠĠ": 1139,
      "soĠ": 1140,
      "director": 1141,
      "ed.": 1142,
      "amp": 1143,
      "<Ġ": 1144,
      "io": 1145,
      "debug": 1146,
      "PI": 1147,
      "os.path.": 1148,
      ",ĊĠĠĠĠĠĠĠĠĠĠĠĠĠĠĠĠĠĠĠĠĠĠĠĠĠĠĠĠĠĠĠĠĠĠĠĠĠĠĠĠ": 1149,
      "ident": 1150,
      "An": 1151,
      "dule": 1152,
      "level": 1153,
      "orm": 1154,
      "sum": 1155,
      "undĠ": 1156,
      "clo": 1157,
      "defaultĠ": 1158,
      ".get_": 1159,
      "()Ġ": 1160,
      "ĊĠĠĠĠĠĠĠĠĠĠĠĠĠĠĠĠĠĠĠĠĠĠĠĠĠĠĠĠ": 1161,
      "}Ġ": 1162,
      "dele": 1163,
      "specifiedĠ": 1164,
      "stem": 1165,
      "presen": 1166,
      "tern": 1167,
      "Co": 1168,
      "tit": 1169,
      "iel": 1170,
      "stru": 1171,
      "byte": 1172,
      ".ĊĊĠĠĠĠĠĠĠĠ:paramĠ": 1173,
      "al_": 1174,
      "spa": 1175,
      "war": 1176,
      "\"\"\"Return": 1177,
      "command": 1178,
      "Com": 1179,
      "position": 1180,
      "search": 1181,
      "numberĠofĠ": 1182,
      "Key": 1183,
      "serv": 1184,
      "pack": 1185,
      "off": 1186,
      "whenĠ": 1187,
      "lib": 1188,
      "čĊ": 1189,
      "dep": 1190,
      "'.format(": 1191,
      "[1]": 1192,
      "http": 1193,
      "atesĠ": 1194,
      "toĠbeĠ": 1195,
      "NoneĠ": 1196,
      "hasĠ": 1197,
      "open": 1198,
      "init": 1199,
      "codeĠ": 1200,
      "module": 1201,
      "cu": 1202,
      "color": 1203,
      "exec": 1204,
      "functionĠ": 1205,
      "-Ġ``": 1206,
      "(s": 1207,
      "xy": 1208,
      ":Ġstr": 1209,
      "attribute": 1210,
      "s.ĊĊĠĠĠĠĠĠĠĠ": 1211,
      "0Ġ": 1212,
      "pres": 1213,
      "part": 1214,
      "fr": 1215,
      "chang": 1216,
      "------": 1217,
      "ong": 1218,
      ")ĊĠĠĠĠĠĠĠĠifĠ": 1219,
      "inclu": 1220,
      "None:ĊĠĠĠĠĠĠĠĠĠĠĠĠ": 1221,
      "LĠ": 1222,
      "ank": 1223,
      "ory": 1224,
      "ĊĠĠĠĠifĠ": 1225,
      "etim": 1226,
      "ĊĠĠĠĠĠĠĠĠĠĠĠĠĠĠĠĠĠĠĠĠĠĠĠĠĠĠĠĠĠĠĠĠ": 1227,
      "cach": 1228,
      "DE": 1229,
      "size": 1230,
      "``ĠisĠ": 1231,
      "cĠ": 1232,
      "haveĠ": 1233,
      "pas": 1234,
      "rec": 1235,
      "ting": 1236,
      "=\"": 1237,
      "py.": 1238,
      "af": 1239,
      "rtype:Ġ": 1240,
      "rap": 1241,
      "feren": 1242,
      "stream": 1243,
      "!=Ġ": 1244,
      "'tĠ": 1245,
      "instanceĠ": 1246,
      "over": 1247,
      "ies": 1248,
      ",ĠtheĠ": 1249,
      "timeĠ": 1250,
      "endĠ": 1251,
      "OR": 1252,
      "client": 1253,
      "author": 1254,
      "čĊĠĠĠĠĠĠĠĠĠĠĠĠ": 1255,
      "lection": 1256,
      "ded": 1257,
      "oryĠ": 1258,
      "callback": 1259,
      "ForĠ": 1260,
      "tuple": 1261,
      "ak": 1262,
      "ss": 1263,
      "local": 1264,
      "ical": 1265,
      "]Ġ": 1266,
      "addres": 1267,
      "ight": 1268,
      "vid": 1269,
      "ifĠtheĠ": 1270,
      "peration": 1271,
      "mem": 1272,
      "base": 1273,
      "],Ġ": 1274,
      "ibut": 1275,
      "statu": 1276,
      "01": 1277,
      "ThisĠmethodĠ": 1278,
      "xĠ": 1279,
      "Defa": 1280,
      "s()": 1281,
      "validat": 1282,
      "inst": 1283,
      "wid": 1284,
      "List": 1285,
      "view": 1286,
      "can": 1287,
      "vis": 1288,
      "data_": 1289,
      "ĊĊĠĠĠĠĠĠĠĠ#Ġ": 1290,
      "new_": 1291,
      "number": 1292,
      "target": 1293,
      "ĊĠĠĠĠĠĠĠĠreturnĠ": 1294,
      "sĠthatĠ": 1295,
      ".ĠĠ": 1296,
      "boo": 1297,
      "anyĠ": 1298,
      ".ĠIfĠ": 1299,
      "datetim": 1300,
      "tre": 1301,
      ",ĊĠĠĠĠĠĠĠĠĠĠĠĠĠĠĠĠĠĠĠĠĠĠĠĠĠĠĠĠĠĠĠĠ": 1302,
      "GetĠ": 1303,
      "currentĠ": 1304,
      ":rtype:Ġ": 1305,
      "msg": 1306,
      "args.": 1307,
      "AL": 1308,
      "Not": 1309,
      "intoĠ": 1310,
      "main": 1311,
      "cle": 1312,
      "source": 1313,
      "age_": 1314,
      "logger.": 1315,
      "int(": 1316,
      "(osid.": 1317,
      "inte": 1318,
      "sess": 1319,
      "formĠ": 1320,
      "ĊĠĠĠĠ#Ġ": 1321,
      ".append(": 1322,
      "parser": 1323,
      "-1": 1324,
      "))ĊĠĠĠĠĠĠĠĠ": 1325,
      "sim": 1326,
      "\".format(": 1327,
      "arrayĠ": 1328,
      "indi": 1329,
      "s.append(": 1330,
      "acces": 1331,
      "c.": 1332,
      "link": 1333,
      "elseĠ": 1334,
      "validĠ": 1335,
      "2Ġ": 1336,
      "pub": 1337,
      "ute": 1338,
      "prefix": 1339,
      "dingĠ": 1340,
      "onĠtheĠ": 1341,
      "-------": 1342,
      "_list": 1343,
      "inform": 1344,
      "API": 1345,
      "ann": 1346,
      "ourceĠ": 1347,
      "date": 1348,
      "conver": 1349,
      ",Ġ\"": 1350,
      "mission": 1351,
      "yn": 1352,
      "er(": 1353,
      "arĠ": 1354,
      "iesĠ": 1355,
      "le_": 1356,
      "cul": 1357,
      "lineĠ": 1358,
      "':Ġ'string'": 1359,
      "viron": 1360,
      "connection": 1361,
      "ack": 1362,
      "shape": 1363,
      "ive_": 1364,
      "dĠ=Ġ": 1365,
      "range(": 1366,
      "d.": 1367,
      "unk": 1368,
      "amb": 1369,
      "Set": 1370,
      "ing.": 1371,
      "host": 1372,
      "EN": 1373,
      "look": 1374,
      "([": 1375,
      "->Ġ": 1376,
      "')ĊĠĠĠĠ": 1377,
      "fail": 1378,
      "server": 1379,
      "E_": 1380,
      "Ob": 1381,
      "ing_": 1382,
      "flu": 1383,
      "icĠ": 1384,
      "Ses": 1385,
      "hel": 1386,
      "itsĠ": 1387,
      "thenĠ": 1388,
      "Session": 1389,
      "message": 1390,
      "ileĠ": 1391,
      "firstĠ": 1392,
      "imum": 1393,
      "]ĊĠĠĠĠĠĠĠĠ": 1394,
      "configur": 1395,
      "del": 1396,
      "re.": 1397,
      "Mo": 1398,
      "AM": 1399,
      "section": 1400,
      "down": 1401,
      "state": 1402,
      "pect": 1403,
      "proper": 1404,
      "AN": 1405,
      "[:": 1406,
      "mask": 1407,
      "(self):ĊĠĠĠĠĠĠĠĠ\"\"\"": 1408,
      "Di": 1409,
      "AR": 1410,
      "s/": 1411,
      "cces": 1412,
      ":ĠtheĠ": 1413,
      "ĠisĠnotĠ": 1414,
      "og": 1415,
      "eterĠ": 1416,
      "@paramĠ": 1417,
      "sessment": 1418,
      "iledĠ": 1419,
      "ature": 1420,
      "from_": 1421,
      "ĊĠĠĠĠĠĠĠĠĠĠĠĠifĠ": 1422,
      "Num": 1423,
      "dataĠ=Ġ": 1424,
      "ĠofĠtheĠ": 1425,
      "s)Ġ": 1426,
      "max_": 1427,
      "s.\"\"\"ĊdefĠ": 1428,
      "/Ġ": 1429,
      "Ċĉĉĉĉ": 1430,
      ",ĊĠĠĠĠĠĠĠĠĠĠĠĠĠĠĠĠ'": 1431,
      "id_": 1432,
      "%Ġ(": 1433,
      "si": 1434,
      "At": 1435,
      "nameĠ=Ġ": 1436,
      "ber": 1437,
      "moreĠ": 1438,
      "raw": 1439,
      "canĠbeĠ": 1440,
      "mult": 1441,
      "description": 1442,
      "whe": 1443,
      "ension": 1444,
      "job": 1445,
      "responseĠ": 1446,
      "try:ĊĠĠĠĠĠĠĠĠĠĠĠĠ": 1447,
      "other": 1448,
      "getĠ": 1449,
      "Al": 1450,
      "2,Ġ": 1451,
      "\"\"\"ĊĠĠĠĠ": 1452,
      "f.": 1453,
      "File": 1454,
      "PĠ": 1455,
      "Per": 1456,
      "diff": 1457,
      "butĠ": 1458,
      "equ": 1459,
      "ize": 1460,
      "referen": 1461,
      "Get": 1462,
      "Fa": 1463,
      "est": 1464,
      "else:ĊĠĠĠĠĠĠĠĠĠĠĠĠĠĠĠĠ": 1465,
      "ind": 1466,
      "handl": 1467,
      "setting": 1468,
      "variable": 1469,
      "perĠ": 1470,
      "y,Ġ": 1471,
      "asĠaĠ": 1472,
      "',": 1473,
      "tw": 1474,
      "sequence": 1475,
      "ĠĠ#Ġ": 1476,
      "EC": 1477,
      "s['": 1478,
      ")ĠforĠ": 1479,
      "example": 1480,
      "atorĠ": 1481,
      "_data": 1482,
      "As": 1483,
      "t(": 1484,
      "second": 1485,
      "s.ĊĊĠĠĠĠ": 1486,
      "10": 1487,
      "struct": 1488,
      "[i": 1489,
      "\")": 1490,
      "Tim": 1491,
      "n_": 1492,
      "therĠ": 1493,
      "Au": 1494,
      "replace": 1495,
      "T_": 1496,
      "ĊĠĠĠĠĠĠĠĠforĠ": 1497,
      "sertĠ": 1498,
      "buil": 1499,
      ",ĠandĠ": 1500,
      "pop": 1501,
      "ledĠ": 1502,
      "proxy": 1503,
      "oc": 1504,
      "re_": 1505,
      "datab": 1506,
      "notĠinĠ": 1507,
      "strip": 1508,
      "order": 1509,
      "ĠaĠ": 1510,
      "########": 1511,
      "ful": 1512,
      "x,Ġ": 1513,
      "Str": 1514,
      "schem": 1515,
      "ath": 1516,
      "orig": 1517,
      "regist": 1518,
      ".ĊĠĠĠĠĠĠĠĠ:paramĠ": 1519,
      "wrap": 1520,
      "\")ĊĠĠĠĠĠĠĠĠ": 1521,
      "textĠ": 1522,
      "cent": 1523,
      "isĠaĠ": 1524,
      "Im": 1525,
      "inputĠ": 1526,
      "lat": 1527,
      "top": 1528,
      "parameterĠ": 1529,
      "1Ġ": 1530,
      "mar": 1531,
      "istĠ": 1532,
      "present": 1533,
      "sample": 1534,
      "graph": 1535,
      "width": 1536,
      "ableĠtoĠ": 1537,
      "else:ĊĠĠĠĠĠĠĠĠ": 1538,
      "not": 1539,
      "doesĠ": 1540,
      "resh": 1541,
      "_key": 1542,
      "seq": 1543,
      "service": 1544,
      "reposit": 1545,
      "test": 1546,
      "Che": 1547,
      "(ĊĠĠĠĠĠĠĠĠĠĠĠĠ": 1548,
      "identifi": 1549,
      "title": 1550,
      "outputĠ": 1551,
      "****": 1552,
      "cm": 1553,
      "enc": 1554,
      "99": 1555,
      "sav": 1556,
      "bet": 1557,
      "ster": 1558,
      "x_": 1559,
      "ionĠ": 1560,
      ")Ġ--": 1561,
      "integ": 1562,
      "raiseĠValueError": 1563,
      "g.": 1564,
      "context": 1565,
      ".ĊĠĠĠĠĠĠĠĠ\"\"\"ĊĠĠĠĠĠĠĠĠ": 1566,
      "ual": 1567,
      "HT": 1568,
      "frame": 1569,
      "wordĠ": 1570,
      "environ": 1571,
      "()ĊĠĠĠĠ": 1572,
      "thanĠ": 1573,
      "()ĊĠĠĠĠĠĠĠĠĠĠĠĠ": 1574,
      "DB": 1575,
      "edg": 1576,
      ":ĠĠĠĠ": 1577,
      "3.": 1578,
      "{0": 1579,
      "limit": 1580,
      ")Ġ-Ġ": 1581,
      "lay": 1582,
      "matri": 1583,
      "collection": 1584,
      "TO": 1585,
      "self.__": 1586,
      "``ĊĠĠĠĠĠĠĠĠraise:ĠĠ": 1587,
      "ant": 1588,
      "Check": 1589,
      "ener": 1590,
      "ateĠaĠ": 1591,
      ",Ġoptional": 1592,
      "ializ": 1593,
      "sco": 1594,
      "ĊĊĠĠĠĠĠĠĠĠifĠ": 1595,
      "._": 1596,
      "yĠ=Ġ": 1597,
      "parse": 1598,
      "provi": 1599,
      ".split": 1600,
      "face": 1601,
      "ĊĠĠĠĠĠĠĠĠ>>>Ġ": 1602,
      "compli": 1603,
      "questĠ": 1604,
      "avail": 1605,
      "dictionaryĠ": 1606,
      "space": 1607,
      "found": 1608,
      "SS": 1609,
      "ĠifĠ": 1610,
      "ieldĠ": 1611,
      "network": 1612,
      "x.": 1613,
      "strĠ": 1614,
      "ated": 1615,
      "valuesĠ": 1616,
      "alread": 1617,
      "ance:Ġ": 1618,
      "Ch": 1619,
      "fieldĠ": 1620,
      "step": 1621,
      ":ĊĠĠĠĠĠĠĠĠĠĠĠĠĠĠĠĠĠĠĠĠĠĠĠĠ": 1622,
      "].": 1623,
      "lob": 1624,
      "========": 1625,
      "(f": 1626,
      "data.": 1627,
      "'ĠinĠ": 1628,
      "ĊĊĠĠĠĠ#Ġ": 1629,
      "ourĠ": 1630,
      "log.": 1631,
      "ult_": 1632,
      "alog": 1633,
      "dictĠ": 1634,
      "zer": 1635,
      ",ĊĠĠĠĠ": 1636,
      "-1]": 1637,
      "DO": 1638,
      "mustĠbeĠimplement": 1639,
      "compliance:Ġ": 1640,
      "args,Ġ": 1641,
      "Option": 1642,
      "usingĠ": 1643,
      "uid": 1644,
      "))ĊĠĠĠĠ": 1645,
      "sameĠ": 1646,
      "unit": 1647,
      "charact": 1648,
      "(str": 1649,
      "Run": 1650,
      "pyĠ": 1651,
      "Cont": 1652,
      "theĊĠĠĠĠĠĠĠĠ": 1653,
      "hash": 1654,
      "25": 1655,
      "shouldĠbeĠ": 1656,
      "sele": 1657,
      "wasĠ": 1658,
      "\"\"\"ĊdefĠget_": 1659,
      "pattern": 1660,
      "create_": 1661,
      "norm": 1662,
      "'.": 1663,
      "otherĠ": 1664,
      "_b": 1665,
      "ov": 1666,
      "PE": 1667,
      "extra": 1668,
      "_idĠ": 1669,
      "record": 1670,
      "]ĊĠĠĠĠĠĠĠĠĠĠĠĠ": 1671,
      "ThisĠmethodĠmustĠbeĠimplement": 1672,
      "ning": 1673,
      "``ĊĠĠĠĠĠĠĠĠ": 1674,
      "DĠ": 1675,
      "ĠĠĠĠĠĠĠ": 1676,
      "cho": 1677,
      "Ra": 1678,
      "annel": 1679,
      "s']": 1680,
      "child": 1681,
      "cket": 1682,
      "seg": 1683,
      "a_": 1684,
      "TI": 1685,
      "contin": 1686,
      "authoriz": 1687,
      ")ĊĠĠĠĠĠĠĠĠĠĠĠĠĠĠĠĠĠĠĠĠ": 1688,
      "esĠtheĠ": 1689,
      "ĊĊĠĠĠĠĠĠĠĠĠĠĠĠĠĠĠĠ": 1690,
      "return:Ġ": 1691,
      "100": 1692,
      ".ĠTheĠ": 1693,
      "nodeĠ": 1694,
      "true": 1695,
      "df": 1696,
      "flag": 1697,
      "==Ġ'": 1698,
      "Ġ=Ġnp.": 1699,
      "sys.": 1700,
      "bre": 1701,
      "\"]Ġ=Ġ": 1702,
      "atch": 1703,
      "follow": 1704,
      "tot": 1705,
      "gre": 1706,
      "ĠĠĠĠĠĠ": 1707,
      "stop": 1708,
      "non": 1709,
      "s.ĊĠĠĠĠĠĠĠĠ": 1710,
      "Error:Ġ": 1711,
      "mon": 1712,
      "Ele": 1713,
      "commandĠ": 1714,
      ")ĊĊĠĠĠĠĠĠĠĠ#Ġ": 1715,
      "are": 1716,
      "startĠ": 1717,
      "allow": 1718,
      "Ġ=Ġ'": 1719,
      "support": 1720,
      "and_": 1721,
      "assertĠ": 1722,
      "loadĠ": 1723,
      "Err": 1724,
      "ultĠ=Ġ": 1725,
      "condition": 1726,
      "root": 1727,
      "ofĠaĠ": 1728,
      "ate(": 1729,
      "Fo": 1730,
      "URL": 1731,
      "Py": 1732,
      "bank": 1733,
      "ĊĊĠĠĠĠĠĠĠĠ:paramĠ": 1734,
      "from": 1735,
      "assign": 1736,
      "AC": 1737,
      "bod": 1738,
      "boole": 1739,
      "in_": 1740,
      "_value": 1741,
      ":Ġstring": 1742,
      "mean": 1743,
      ")Ġ+Ġ": 1744,
      "d,Ġ": 1745,
      "doesĠnotĠ": 1746,
      "*compliance:Ġ": 1747,
      "fyĠ": 1748,
      "requestĠ": 1749,
      "cod": 1750,
      "ear": 1751,
      "post": 1752,
      "assessment": 1753,
      "Config": 1754,
      "``Id": 1755,
      "coord": 1756,
      "sĊĠĠĠĠĠĠĠĠĠĠĠĠ": 1757,
      "alreadyĠ": 1758,
      "returnedĠ": 1759,
      "system": 1760,
      "xml": 1761,
      "sĠinĠtheĠ": 1762,
      "ErrorĠ": 1763,
      "sĠ:Ġ": 1764,
      "delete": 1765,
      "viceĠ": 1766,
      "arg:ĠĠĠĠ": 1767,
      "ateĠtheĠ": 1768,
      "Sub": 1769,
      "dim": 1770,
      "userĠ": 1771,
      "``ĠisĠ``": 1772,
      "On": 1773,
      "channel": 1774,
      "rando": 1775,
      "TrueĠ": 1776,
      "=Ġself.": 1777,
      "SetĠ": 1778,
      "remo": 1779,
      "stance": 1780,
      "betwe": 1781,
      "Attr": 1782,
      "errorĠ": 1783,
      "::": 1784,
      ",Ġself.": 1785,
      ":ĊĠĠĠĠĠĠĠĠĠĠĠĠreturnĠ": 1786,
      "--ĠThisĠmethodĠmustĠbeĠimplement": 1787,
      "lookup": 1788,
      "Up": 1789,
      "chunk": 1790,
      "ĊĠĠĠĠĠĠĠĠ\"\"\"ĊĠĠĠĠĠĠĠĠifĠ": 1791,
      "sĠfromĠ": 1792,
      "'Ġ+Ġ": 1793,
      ",ĠorĠ": 1794,
      "null": 1795,
      "book": 1796,
      "ibuteĠ": 1797,
      "sp": 1798,
      "met": 1799,
      "nex": 1800,
      "sol": 1801,
      "ast": 1802,
      "))ĊĠĠĠĠĠĠĠĠĠĠĠĠ": 1803,
      "env": 1804,
      "FI": 1805,
      "Operation": 1806,
      "completeĠ": 1807,
      "Po": 1808,
      "://": 1809,
      "bit": 1810,
      "dateĠ": 1811,
      "unt": 1812,
      "edĠtoĠ": 1813,
      "provid": 1814,
      "sizeĠ": 1815,
      "scal": 1816,
      "start_": 1817,
      "lamb": 1818,
      "tingĠ": 1819,
      "'Ġ%Ġ": 1820,
      "es.": 1821,
      "ArgumentĠ": 1822,
      "(string": 1823,
      "pair": 1824,
      "sĠofĠtheĠ": 1825,
      "m.": 1826,
      "list(": 1827,
      "id.": 1828,
      "termin": 1829,
      "ĠinĠrange(": 1830,
      "gin": 1831,
      "Args:ĊĠĠĠĠĠĠĠĠĠĠĠĠ": 1832,
      "lang": 1833,
      "mod": 1834,
      "gram": 1835,
      "file_": 1836,
      "ListĠ": 1837,
      "hy": 1838,
      "messageĠ": 1839,
      "sĠ=Ġ[]": 1840,
      "plot": 1841,
      "Default": 1842,
      "zip": 1843,
      "Ġ'": 1844,
      "location": 1845,
      "key,Ġ": 1846,
      "loc": 1847,
      "User": 1848,
      "\":Ġ\"": 1849,
      "ve": 1850,
      "resultĠ": 1851,
      ")ĊĠĠĠĠreturnĠ": 1852,
      "dest": 1853,
      "data,Ġ": 1854,
      "auto": 1855,
      ")ĊĊĠĠĠĠĠĠĠĠĠĠĠĠ": 1856,
      "Group": 1857,
      "IP": 1858,
      "dataset": 1859,
      "Ser": 1860,
      "Gener": 1861,
      "age.": 1862,
      "singĠ": 1863,
      "Element": 1864,
      "EĠ": 1865,
      ")ĠandĠ": 1866,
      "((": 1867,
      "ParametersĊĠĠĠĠĠĠĠĠ": 1868,
      "antĠ": 1869,
      "html": 1870,
      "password": 1871,
      "attr(": 1872,
      "origin": 1873,
      "sĊĠĠĠĠ----------": 1874,
      "pression": 1875,
      "ten": 1876,
      "':": 1877,
      "ĊĠĠĠĠĠĠĠĠelse:ĊĠĠĠĠĠĠĠĠĠĠĠĠ": 1878,
      "mandat": 1879,
      "s':Ġ": 1880,
      "pay": 1881,
      ")ĊĊĠĠĠĠ#Ġ": 1882,
      "help": 1883,
      "sq": 1884,
      "pri": 1885,
      "ard": 1886,
      "Cl": 1887,
      "Qu": 1888,
      "FailedĠ": 1889,
      "modi": 1890,
      "readĠ": 1891,
      "čĊčĊĠĠĠĠĠĠĠĠ": 1892,
      "represent": 1893,
      "prob": 1894,
      ")Ġ==Ġ": 1895,
      "pyth": 1896,
      ")ĊĠĠĠĠĠĠĠĠelse:ĊĠĠĠĠĠĠĠĠĠĠĠĠ": 1897,
      "stra": 1898,
      "JS": 1899,
      "\"\"\"ĊdefĠ_": 1900,
      "tail": 1901,
      "asso": 1902,
      "sĠ=Ġ[": 1903,
      "whileĠ": 1904,
      "syn": 1905,
      "queryĠ": 1906,
      "attributeĠ": 1907,
      "ĊĠĠĠĠĊĠĠĠĠ": 1908,
      "close": 1909,
      "pix": 1910,
      "or_": 1911,
      "oper": 1912,
      "modelĠ": 1913,
      "mandatoryĠ": 1914,
      "document": 1915,
      "basedĠ": 1916,
      "ParametersĊĠĠĠĠĠĠĠĠ----------": 1917,
      "\"Ġ%Ġ": 1918,
      "ParametersĊĠĠĠĠ----------": 1919,
      "on_": 1920,
      "associ": 1921,
      "Object": 1922,
      "]ĊĠĠĠĠ": 1923,
      "isĠnotĠNone": 1924,
      "betweenĠ": 1925,
      "(ĊĠĠĠĠĠĠĠĠĠĠĠĠĠĠĠĠ": 1926,
      "_id,Ġ": 1927,
      "eren": 1928,
      "l_": 1929,
      "toĠaĠ": 1930,
      "Attribute": 1931,
      "):ĊĠĠĠĠ": 1932,
      "org": 1933,
      "Col": 1934,
      "break": 1935,
      "dec": 1936,
      "nameĠofĠtheĠ": 1937,
      "Null": 1938,
      "s(self,Ġ": 1939,
      "):ĊĠĠĠĠĠĠĠĠĠĠĠĠĠĠĠĠĠĠĠĠ": 1940,
      "catalog": 1941,
      "cour": 1942,
      "own": 1943,
      "email": 1944,
      "find": 1945,
      "=self.": 1946,
      "expect": 1947,
      "zero": 1948,
      "indo": 1949,
      "f_": 1950,
      "callĠ": 1951,
      "JSON": 1952,
      ")Ġ->Ġ": 1953,
      "sk": 1954,
      "')ĊĠĠĠĠĠĠĠĠĠĠĠĠ": 1955,
      "][": 1956,
      ":returns:Ġ": 1957,
      "archĠ": 1958,
      "device": 1959,
      "inĠaĠ": 1960,
      "current_": 1961,
      "ation_": 1962,
      "differen": 1963,
      "ightĠ": 1964,
      "imumĠ": 1965,
      "suppor": 1966,
      "ĠasĠ": 1967,
      "ĊĠĠĠĠĠĠĠĠĠĠĠĠ'": 1968,
      "ct_": 1969,
      "itherĠ": 1970,
      "split": 1971,
      "Ver": 1972,
      "mayĠ": 1973,
      "sĠwithĠ": 1974,
      "unableĠtoĠ": 1975,
      "Ġ=Ġself._": 1976,
      "glob": 1977,
      "().": 1978,
      "doĠ": 1979,
      "nd": 1980,
      "thro": 1981,
      "grade": 1982,
      "day": 1983,
      "iĠ": 1984,
      "mb": 1985,
      "resultĠ=Ġ": 1986,
      "old": 1987,
      "ativeĠ": 1988,
      "_map": 1989,
      "200": 1990,
      "cer": 1991,
      "continue": 1992,
      "For": 1993,
      "queue": 1994,
      "read_": 1995,
      "stack": 1996,
      "(self):ĊĠĠĠĠĠĠĠĠ\"\"\"ĊĠĠĠĠĠĠĠĠ": 1997,
      "LO": 1998,
      "Time": 1999,
      "singleĠ": 2000,
      "exp": 2001,
      "byĠtheĠ": 2002,
      "Argument": 2003,
      "http://": 2004,
      "go": 2005,
      "dur": 2006,
      "tool": 2007,
      "util": 2008,
      "sty": 2009,
      "s[0]": 2010,
      "ĊĠĠĠĠĠĠĠĠĠĠĠĠ#Ġ": 2011,
      "medi": 2012,
      "UL": 2013,
      "ParametersĊĠĠĠĠ----------ĊĠĠĠĠ": 2014,
      "timeout": 2015,
      "rc": 2016,
      "AnĠ": 2017,
      "daĠ": 2018,
      "mark": 2019,
      "ParametersĊĠĠĠĠĠĠĠĠ----------ĊĠĠĠĠĠĠĠĠ": 2020,
      "CO": 2021,
      "seeĠ": 2022,
      "enum": 2023,
      "%sĠ": 2024,
      "0.0": 2025,
      "isĠtheĠ": 2026,
      "i.": 2027,
      "eĠaĠ": 2028,
      "applic": 2029,
      "cs": 2030,
      ";Ġ": 2031,
      "elementĠ": 2032,
      "stor": 2033,
      "compon": 2034,
      "fre": 2035,
      "ĊĠĠĠĠĠĠĠĠ:typeĠ": 2036,
      "depend": 2037,
      "NameĠ": 2038,
      "make": 2039,
      "omeĠ": 2040,
      "_dir": 2041,
      "swith": 2042,
      "MA": 2043,
      "ĊĠĠĠĠ>>>Ġ": 2044,
      "..Ġ": 2045,
      "copy": 2046,
      "yieldĠ": 2047,
      "end_": 2048,
      "ed.*": 2049,
      "*compliance:ĠmandatoryĠ": 2050,
      ".add_": 2051,
      "num_": 2052,
      "recor": 2053,
      "abil": 2054,
      "forĠaĠ": 2055,
      "likeĠ": 2056,
      "C{": 2057,
      "isĠNone": 2058,
      "field_": 2059,
      "{0}": 2060,
      "t,Ġ": 2061,
      "long": 2062,
      "larg": 2063,
      "displa": 2064,
      "orderĠ": 2065,
      "completeĠrequest": 2066,
      "unableĠtoĠcompleteĠrequest": 2067,
      "thereĠ": 2068,
      "RO": 2069,
      "\"\"\"ĊĠĠĠĠĠĠĠĠifĠ": 2070,
      ")ĊĠĠĠĠifĠ": 2071,
      "last": 2072,
      "whereĠ": 2073,
      "sĠanĠ": 2074,
      "ĊĠĠĠĠĠĠĠĠĠĠĠĠĠĠĠĠifĠ": 2075,
      "HTT": 2076,
      "contro": 2077,
      "eni": 2078,
      "_dict": 2079,
      "align": 2080,
      "UT": 2081,
      "printĠ": 2082,
      "SI": 2083,
      "reference": 2084,
      "tableĠ": 2085,
      "XM": 2086,
      "Path": 2087,
      "type(": 2088,
      "ship": 2089,
      "boolean": 2090,
      "lines": 2091,
      "for_": 2092,
      "supports_": 2093,
      "a.": 2094,
      "ed,Ġ": 2095,
      "s'": 2096,
      "update(": 2097,
      "ugh": 2098,
      "classĠ": 2099,
      "ingĠaĠ": 2100,
      ".get('": 2101,
      "passedĠ": 2102,
      "plug": 2103,
      "case": 2104,
      "--ĠThisĠmethodĠmustĠbeĠimplemented.*": 2105,
      "*compliance:ĠmandatoryĠ--ĠThisĠmethodĠmustĠbeĠimplemented.*": 2106,
      "Bu": 2107,
      "project": 2108,
      ":ĊĠĠĠĠĠĠĠĠreturnĠ": 2109,
      "opt": 2110,
      "NotFo": 2111,
      "ĠtoĠtheĠ": 2112,
      "full": 2113,
      "encode": 2114,
      "calcul": 2115,
      "s.get": 2116,
      "(1": 2117,
      "PO": 2118,
      "it_": 2119,
      "Example": 2120,
      "correspon": 2121,
      "otherw": 2122,
      "hist": 2123,
      "foundĠ": 2124,
      "_name,Ġ": 2125,
      "lower": 2126,
      "ĊĠĠĠĠforĠ": 2127,
      "ages": 2128,
      ".ĠThisĠ": 2129,
      "QU": 2130,
      "Wh": 2131,
      ")ĊĠĠĠĠĠĠĠĠĠĠĠĠifĠ": 2132,
      "twoĠ": 2133,
      "contentĠ": 2134,
      "])": 2135,
      "(self._": 2136,
      "lef": 2137,
      "thĠ": 2138,
      "succes": 2139,
      "entr": 2140,
      "=self._": 2141,
      "riev": 2142,
      "IfĠtheĠ": 2143,
      "ule": 2144,
      "ĊĠĠĠĠreturnĠ": 2145,
      "only": 2146,
      "value,Ġ": 2147,
      "handle": 2148,
      "addĠ": 2149,
      "AddĠ": 2150,
      "CĠ": 2151,
      "_to_": 2152,
      "ualĠ": 2153,
      "show": 2154,
      "way": 2155,
      "_url": 2156,
      "5,Ġ": 2157,
      "ĊĠĠĠĠĠĠĠĠ:": 2158,
      "year": 2159,
      "time_": 2160,
      "Gra": 2161,
      "ampleĠ": 2162,
      "tifi": 2163,
      "`,Ġ": 2164,
      "ĊĊĠĠĠĠifĠ": 2165,
      "')Ġ": 2166,
      "OperationFailedĠ": 2167,
      "interval": 2168,
      "{\"": 2169,
      "execut": 2170,
      ":ĊĠĠĠĠĠĠ": 2171,
      "term": 2172,
      "vect": 2173,
      "offset": 2174,
      "urlĠ": 2175,
      "*args,Ġ": 2176,
      "templateĠ": 2177,
      "informationĠ": 2178,
      "ES": 2179,
      "NO": 2180,
      "dtype": 2181,
      "Add": 2182,
      "64": 2183,
      "Hand": 2184,
      "timest": 2185,
      "tupleĠ": 2186,
      "mp": 2187,
      "kwargs.": 2188,
      "roo": 2189,
      "write": 2190,
      "open(": 2191,
      ".ĊĠĠĠĠ\"\"\"ĊĠĠĠĠ": 2192,
      "definition": 2193,
      ":ĊĊĠĠĠĠĠĠĠĠ": 2194,
      "axis": 2195,
      "u'": 2196,
      "countĠ": 2197,
      "Fun": 2198,
      "directory": 2199,
      "lig": 2200,
      "verbo": 2201,
      "stom": 2202,
      "template": 2203,
      "Ġ*Ġ": 2204,
      "produ": 2205,
      "chil": 2206,
      ")ĊĊĠĠĠĠĠĠĠĠreturnĠ": 2207,
      "20": 2208,
      "ali": 2209,
      "ĊĠĠĠĠĠĠĠĠĠĠĠĠĠĠĠĠ``": 2210,
      "parse_": 2211,
      "default_": 2212,
      "pointĠ": 2213,
      "items(": 2214,
      "database": 2215,
      "ĊĊĠĠĠĠĠĠĠĠreturnĠ": 2216,
      "befor": 2217,
      "caseĠ": 2218,
      "fast": 2219,
      "FA": 2220,
      "1:": 2221,
      "Conver": 2222,
      "ĊĊĠĠĠĠ:typeĠ": 2223,
      ")ĊĊĠĠĠĠĠĠĠĠifĠ": 2224,
      "ĊĠĠĠĠĠĠĠĠĠĠĠĠTheĠ": 2225,
      "connect": 2226,
      "ReturnsĊĠĠĠĠ": 2227,
      "usedĠtoĠ": 2228,
      "uleĠ": 2229,
      "To": 2230,
      "ystem": 2231,
      "normal": 2232,
      "relation": 2233,
      "ĠĠ'": 2234,
      "Pr": 2235,
      "Stat": 2236,
      "alle": 2237,
      "Read": 2238,
      "character": 2239,
      "through": 2240,
      "(ĊĠĠĠĠĠĠĠĠ": 2241,
      "Me": 2242,
      ".\"\"\"ĊdefĠ_": 2243,
      "ainĠ": 2244,
      "fromĠaĠ": 2245,
      "_size": 2246,
      "Log": 2247,
      ":ĊĠĠĠĠĠĠĠĠĠĠĠĠraiseĠ": 2248,
      "specifyĠ": 2249,
      "model.": 2250,
      "i,Ġ": 2251,
      "maz": 2252,
      "update_": 2253,
      "IO": 2254,
      "OperationFailedĠ-Ġ": 2255,
      "optionalĠ": 2256,
      "cri": 2257,
      "OperationFailedĠ-ĠunableĠtoĠcompleteĠrequest": 2258,
      "Amaz": 2259,
      "IT": 2260,
      "check_": 2261,
      "sĠorĠ": 2262,
      ")ĊĠĠĠĠĠĠĠĠ>>>Ġ": 2263,
      "false": 2264,
      "detail": 2265,
      ".ĊĊĠĠĠĠĠĠĠĠReturn": 2266,
      "ED": 2267,
      "id.Id": 2268,
      "Invalid": 2269,
      "them": 2270,
      "stateĠ": 2271,
      "any": 2272,
      "comment": 2273,
      "ArgumentĠ-Ġ``": 2274,
      "parent": 2275,
      "indow": 2276,
      "s:ĊĠĠĠĠĠĠĠĠĠĠĠĠĠĠĠĠ": 2277,
      "None,Ġ": 2278,
      "rele": 2279,
      "valueĠ=Ġ": 2280,
      "status": 2281,
      "nown": 2282,
      "returnsĠ": 2283,
      "dum": 2284,
      "ĊĠĠĠĠĠĠĠĠself.": 2285,
      "runtime": 2286,
      "argumentĠ": 2287,
      "idx": 2288,
      "berĠ": 2289,
      "entic": 2290,
      "(n": 2291,
      "required": 2292,
      ":ĠstringĊĠĠĠĠ:paramĠ": 2293,
      "AmazonĠ": 2294,
      "sin": 2295,
      "i_": 2296,
      "langu": 2297,
      "cf": 2298,
      "esĠ=Ġ": 2299,
      "alsoĠ": 2300,
      "alph": 2301,
      "\\\\": 2302,
      "Raise": 2303,
      "pixel": 2304,
      "bar": 2305,
      "n'tĠ": 2306,
      "3Ġ": 2307,
      "s.ĊĠĠĠĠ": 2308,
      "igno": 2309,
      "directoryĠ": 2310,
      "afterĠ": 2311,
      "amo": 2312,
      "inser": 2313,
      "matrix": 2314,
      "cate": 2315,
      "my_": 2316,
      "čĊĠĠĠĠĠĠĠĠ\"\"\"": 2317,
      "Cli": 2318,
      "_session": 2319,
      "tx": 2320,
      "sourceĠ": 2321,
      "ReturnsĊĠĠĠĠ-------": 2322,
      "script": 2323,
      "ĊĊĠĠ": 2324,
      "ousĠ": 2325,
      "mapp": 2326,
      "try:ĊĠĠĠĠĠĠĠĠĠĠĠĠĠĠĠĠ": 2327,
      "r.": 2328,
      "all_": 2329,
      "failure": 2330,
      "id,Ġ": 2331,
      "APIĠ": 2332,
      ".com": 2333,
      "print(": 2334,
      "Respon": 2335,
      "eitherĠ": 2336,
      "aĠlistĠofĠ": 2337,
      "thread": 2338,
      "ĊĠĠĠĠĠĠĠĠ:return:Ġ": 2339,
      "notĠbeĠ": 2340,
      "segment": 2341,
      "feature": 2342,
      "=1": 2343,
      ",ĊĠĠĠĠĠĠĠĠ'": 2344,
      "whetherĠ": 2345,
      "fn": 2346,
      "current": 2347,
      "web": 2348,
      "select": 2349,
      "modifi": 2350,
      "rever": 2351,
      "fit": 2352,
      "beenĠ": 2353,
      "os.path.join(": 2354,
      "SE": 2355,
      "rece": 2356,
      "Auth": 2357,
      "čĊĠĠĠĠĠĠĠĠĠĠĠĠĠĠĠĠ": 2358,
      "meth": 2359,
      "*args,Ġ**kwargs": 2360,
      "objective_": 2361,
      "existingĠ": 2362,
      "den": 2363,
      "now": 2364,
      "kwarg": 2365,
      "):ĊĠĠĠĠĠĠĠĠĠĠĠĠraiseĠ": 2366,
      "matchĠ": 2367,
      "coordin": 2368,
      "L{": 2369,
      "path,Ġ": 2370,
      "mer": 2371,
      "filenameĠ": 2372,
      "OperationFailedĠ-ĠunableĠtoĠcompleteĠrequestĊĠĠĠĠĠĠĠĠraise:ĠĠ": 2373,
      "request.": 2374,
      "ibleĠ": 2375,
      "Ġ==Ġ'": 2376,
      "timestamp": 2377,
      "stdo": 2378,
      "return:Ġ(osid.": 2379,
      "ReturnsĊĠĠĠĠ-------ĊĠĠĠĠ": 2380,
      "ING": 2381,
      "exceptions.": 2382,
      ":ĊĠĠĠĠĠĠĠĠĠĠĠĠifĠ": 2383,
      "+=Ġ1": 2384,
      "ingĠtoĠ": 2385,
      "vision": 2386,
      "les": 2387,
      "e,Ġ": 2388,
      "er,Ġ": 2389,
      "remote": 2390,
      "configurationĠ": 2391,
      "ĊĠĠĠĠĠĠĠĠĠĠ": 2392,
      "math": 2393,
      "query_": 2394,
      "lambdaĠ": 2395,
      "'''ĊĠĠĠĠĠĠĠĠ": 2396,
      "parent_": 2397,
      "inĠself.": 2398,
      "2]": 2399,
      "withĠaĠ": 2400,
      "include": 2401,
      "CH": 2402,
      "ud": 2403,
      "string',ĊĠĠĠĠĠĠĠĠ": 2404,
      "followingĠ": 2405,
      "pk": 2406,
      "sequenceĠ": 2407,
      "GetsĠtheĠ": 2408,
      "associatedĠ": 2409,
      "AW": 2410,
      "vol": 2411,
      "weight": 2412,
      "Item": 2413,
      ":Ġint": 2414,
      "buff": 2415,
      ".ĊĊĠĠĠĠ:paramĠ": 2416,
      "201": 2417,
      "vo": 2418,
      "base_": 2419,
      ":raiseĠ": 2420,
      "Ma": 2421,
      "Node": 2422,
      "Permission": 2423,
      "s]": 2424,
      "separ": 2425,
      "targetĠ": 2426,
      "sl": 2427,
      "expression": 2428,
      ")ĠorĠ": 2429,
      "16": 2430,
      "sĠifĠ": 2431,
      "aĠ=Ġ": 2432,
      "r_": 2433,
      "conn": 2434,
      ",Ġb": 2435,
      "use_": 2436,
      "s)ĊĠĠĠĠĠĠĠĠ": 2437,
      "containingĠ": 2438,
      "FĠ": 2439,
      "istr": 2440,
      "art": 2441,
      "Reg": 2442,
      "itĠisĠ": 2443,
      "sĠ=Ġself.": 2444,
      "set(": 2445,
      "response.": 2446,
      "yourĠ": 2447,
      "sec": 2448,
      "public": 2449,
      ".ĊĊĠĠĠĠĠĠĠĠarg:ĠĠĠĠ": 2450,
      ">Ġ0": 2451,
      "Ap": 2452,
      "asset_": 2453,
      "load_": 2454,
      "debug(\"": 2455,
      ")]": 2456,
      "Bo": 2457,
      "4.": 2458,
      "g_": 2459,
      ":ĠAĠ": 2460,
      "SeeĠ": 2461,
      "corre": 2462,
      "depth": 2463,
      "isĠNone:ĊĠĠĠĠĠĠĠĠĠĠĠĠ": 2464,
      "like": 2465,
      "ĊĊĠĠĠĠ:paramĠ": 2466,
      "calledĠ": 2467,
      "lib.": 2468,
      "NullArgumentĠ-Ġ``": 2469,
      "manag": 2470,
      "):ĠtheĠ": 2471,
      "store": 2472,
      "TODO": 2473,
      "Net": 2474,
      "Request": 2475,
      ":ĊĠĠĠĠ": 2476,
      "ĊĠĠĠĠĠĠĠĠĠĠĠĠĠĠĠĠĠĠĠĠĠĠĠĠĠĠĠĠĠĠĠĠĠĠĠĠĠĠĠĠ": 2477,
      "Fr": 2478,
      "member": 2479,
      "ardĠ": 2480,
      "clust": 2481,
      "TY": 2482,
      "priv": 2483,
      "given": 2484,
      "note": 2485,
      "Des": 2486,
      "cap": 2487,
      "aly": 2488,
      "warning": 2489,
      "decode": 2490,
      "cy": 2491,
      "asyn": 2492,
      "3,Ġ": 2493,
      "domain": 2494,
      "operation": 2495,
      "acce": 2496,
      "YouĠ": 2497,
      "bran": 2498,
      "Validat": 2499,
      "searchĠ": 2500,
      "e.g": 2501,
      "ĊĠĠĠĠĠĠĠĠĠĠĠĠĠĠĠĠ'": 2502,
      "Pyth": 2503,
      "fĠ=Ġ": 2504,
      "overĠ": 2505,
      "Remov": 2506,
      "poss": 2507,
      "direct": 2508,
      "dictionary": 2509,
      ">=Ġ": 2510,
      "sn": 2511,
      "encod": 2512,
      "admin": 2513,
      "ill": 2514,
      "ctionĠ": 2515,
      "flux": 2516,
      "datetime.": 2517,
      "beforeĠ": 2518,
      "data['": 2519,
      "gor": 2520,
      "log_": 2521,
      "information": 2522,
      "v_": 2523,
      "y.": 2524,
      "spec": 2525,
      ":Ġ(": 2526,
      "ĊĠĠĠĠĠĠĠĠtheĠ": 2527,
      "providedĠ": 2528,
      "image": 2529,
      "plyĠ": 2530,
      "UN": 2531,
      "enumer": 2532,
      "Cal": 2533,
      "IĠ": 2534,
      "\")ĊĠĠĠĠ": 2535,
      "vl": 2536,
      "sureĠ": 2537,
      "time.": 2538,
      "fra": 2539,
      "config.": 2540,
      "eval": 2541,
      "Or": 2542,
      "integer": 2543,
      "build_": 2544,
      ".join(": 2545,
      "red_": 2546,
      "numpy.": 2547,
      "cls.": 2548,
      "region": 2549,
      "authorizationĠ": 2550,
      "Index": 2551,
      ":py": 2552,
      "last_": 2553,
      "assessment_": 2554,
      "prim": 2555,
      "ItĠ": 2556,
      "}ĊĠĠĠĠĠĠĠĠ": 2557,
      "RED": 2558,
      "enable": 2559,
      "=None):ĊĠĠĠĠĠĠĠĠ\"\"\"": 2560,
      "...ĠĠĠĠĠ": 2561,
      "dimension": 2562,
      "ĠinĠtheĠ": 2563,
      "Dict": 2564,
      "ash": 2565,
      "tran": 2566,
      "\"\"\"Cre": 2567,
      "sĊĠĠĠĠĠĠĠĠ-------": 2568,
      ")ĊĠĠĠĠĠĠĠĠself.": 2569,
      "dist": 2570,
      "definedĠ": 2571,
      "createdĠ": 2572,
      "fet": 2573,
      "emp": 2574,
      "activ": 2575,
      "AD": 2576,
      "vent": 2577,
      "erĠ=Ġ": 2578,
      ".ĠForĠ": 2579,
      "entry": 2580,
      "`ĠisĠ": 2581,
      "ndarray": 2582,
      "TĠ": 2583,
      "pĠ": 2584,
      "``ĠisĠ``null": 2585,
      "params": 2586,
      "chain": 2587,
      "(r": 2588,
      "someĠ": 2589,
      "createĠ": 2590,
      "(x": 2591,
      "on'tĠ": 2592,
      "upĠ": 2593,
      "models.": 2594,
      "class_": 2595,
      "ww": 2596,
      "makeĠ": 2597,
      "s://": 2598,
      "loop": 2599,
      "pathĠ": 2600,
      "ipleĠ": 2601,
      "first": 2602,
      "DefaultĠ": 2603,
      "endpoint": 2604,
      "try:ĊĠĠĠĠĠĠĠĠ": 2605,
      "name:Ġ": 2606,
      "jectĠ": 2607,
      "32": 2608,
      "ier": 2609,
      "desc": 2610,
      "auseĠ": 2611,
      "previ": 2612,
      "https://": 2613,
      "\"Ġ+Ġ": 2614,
      "1.0": 2615,
      "configuration": 2616,
      "\"\"\"S": 2617,
      "execute": 2618,
      "``ĊĠĠĠĠĠĠĠĠraise:ĠĠOperationFailedĠ-ĠunableĠtoĠcompleteĠrequestĊĠĠĠĠĠĠĠĠraise:ĠĠ": 2619,
      "url,Ġ": 2620,
      "kĠ": 2621,
      "plic": 2622,
      "ort": 2623,
      "='string',ĊĠĠĠĠĠĠĠĠ": 2624,
      "used": 2625,
      "page": 2626,
      "iss": 2627,
      "aboutĠ": 2628,
      "extension": 2629,
      "lowĠ": 2630,
      "Quer": 2631,
      "Fil": 2632,
      "repo": 2633,
      "availableĠ": 2634,
      "shap": 2635,
      "_index": 2636,
      "versionĠ": 2637,
      "imageĠ": 2638,
      "inste": 2639,
      "component": 2640,
      "uri": 2641,
      "ĊĠĠĠĠĠĠĠĠTheĠ": 2642,
      "alseĠ": 2643,
      "thresh": 2644,
      "\"Ġ%Ġ(": 2645,
      "tion": 2646,
      "agesĠ": 2647,
      "NoĠ": 2648,
      "logging.": 2649,
      "rid": 2650,
      "Resource": 2651,
      ")ĊĠĠĠĠĠĠĠĠexceptĠ": 2652,
      "serializ": 2653,
      "cache": 2654,
      "print(\"": 2655,
      "loa": 2656,
      "lastĠ": 2657,
      "'Ġ%Ġ(": 2658,
      "analy": 2659,
      "ted_": 2660,
      "conf": 2661,
      "s.ĊĠĠĠĠĠĠĠĠĠĠĠĠ": 2662,
      "ĊĊĠĠĠĠ>>>Ġ": 2663,
      "body": 2664,
      "l.": 2665,
      "spect": 2666,
      "identifier": 2667,
      "justĠ": 2668,
      "{ĊĠĠĠĠĠĠĠĠĠĠĠĠ'": 2669,
      "specificĠ": 2670,
      "d(": 2671,
      "lish": 2672,
      "factor": 2673,
      "else:ĊĠĠĠĠĠĠĠĠĠĠĠĠĠĠĠĠĠĠĠĠ": 2674,
      "interface": 2675,
      "v1": 2676,
      "Requi": 2677,
      "1)": 2678,
      "observ": 2679,
      "String": 2680,
      "\"\"\"GetĠ": 2681,
      "ReturnĠ": 2682,
      "(osid.id.Id": 2683,
      "sĊĠĠĠĠĠĠĠĠ-------ĊĠĠĠĠĠĠĠĠ": 2684,
      "distr": 2685,
      "ypeĠ": 2686,
      "REQU": 2687,
      "(string)Ġ--": 2688,
      "_S": 2689,
      "123": 2690,
      "********": 2691,
      "atingĠ": 2692,
      "Note": 2693,
      "Version": 2694,
      "indĠ": 2695,
      "resol": 2696,
      "perio": 2697,
      "let": 2698,
      "thatĠtheĠ": 2699,
      "write(": 2700,
      "returnĠself.": 2701,
      "theyĠ": 2702,
      "icalĠ": 2703,
      "rout": 2704,
      "children": 2705,
      "TION": 2706,
      "update": 2707,
      ":čĊĠĠĠĠĠĠĠĠĠĠĠĠ": 2708,
      "file.": 2709,
      "ĊĊĠĠĠĠreturnĠ": 2710,
      "atom": 2711,
      "stdout": 2712,
      "fici": 2713,
      "track": 2714,
      "ched": 2715,
      "ningĠ": 2716,
      "json.": 2717,
      "startswith": 2718,
      "Deni": 2719,
      "text_": 2720,
      ":ĊĠĠĠĠĠĠĠĠĠĠĠĠself.": 2721,
      "s\"\"\"ĊdefĠ": 2722,
      "(),Ġ": 2723,
      "repository": 2724,
      "correspondingĠ": 2725,
      "encoding": 2726,
      "pedĠ": 2727,
      "sm": 2728,
      "edĠ-Ġ": 2729,
      "style": 2730,
      "sist": 2731,
      "PermissionDeni": 2732,
      "andĠtheĠ": 2733,
      "Error(": 2734,
      "-8": 2735,
      "decor": 2736,
      "asĠtheĠ": 2737,
      "ĊĊĠĠĠĠĠĠĠĠĠĠĠĠ#Ġ": 2738,
      "Ġ=Ġ\"": 2739,
      "atureĠ": 2740,
      "k,Ġ": 2741,
      "cell": 2742,
      "bl": 2743,
      "Meta": 2744,
      "regex": 2745,
      "################": 2746,
      "exclu": 2747,
      "True,Ġ": 2748,
      "s[i": 2749,
      "cred": 2750,
      "properti": 2751,
      "req": 2752,
      "assum": 2753,
      "):ĊĠĠĠĠĠĠĠĠĠĠĠĠifĠ": 2754,
      "ialĠ": 2755,
      "itu": 2756,
      "'ĊĠĠĠĠĠĠĠĠ": 2757,
      "choi": 2758,
      "python": 2759,
      "ic_": 2760,
      "Spe": 2761,
      "Ġ=ĠNone": 2762,
      "eseĠ": 2763,
      "Inter": 2764,
      "Client": 2765,
      "output_": 2766,
      "Content": 2767,
      "flow": 2768,
      "parti": 2769,
      "requiredĠ": 2770,
      "sĠforĠtheĠ": 2771,
      "ĊĠĠĠĠĠĠĠĠĠĠĠ": 2772,
      "metri": 2773,
      "atĠtheĠ": 2774,
      "dro": 2775,
      "Error(\"": 2776,
      "by_": 2777,
      "force": 2778,
      "dic": 2779,
      "min_": 2780,
      "clean": 2781,
      "4Ġ": 2782,
      "ther": 2783,
      "determin": 2784,
      "deriv": 2785,
      "allĠtheĠ": 2786,
      "empty": 2787,
      "fore": 2788,
      "----------------": 2789,
      "mag": 2790,
      ":Ġbool": 2791,
      "vec": 2792,
      "as_": 2793,
      "ptyĠ": 2794,
      "``Id``Ġ": 2795,
      "irĠ": 2796,
      "AG": 2797,
      "roll": 2798,
      "<=Ġ": 2799,
      "Do": 2800,
      "Instance": 2801,
      "Ident": 2802,
      "metadata": 2803,
      "_meta": 2804,
      "find_": 2805,
      "print('": 2806,
      "Error('": 2807,
      "baseĠ": 2808,
      "ĊĠĠĠĠĠĠĠĠĠĠĠĠelse:ĊĠĠĠĠĠĠĠĠĠĠĠĠĠĠĠĠ": 2809,
      "Base": 2810,
      "unicode": 2811,
      "gres": 2812,
      "errors.": 2813,
      "encry": 2814,
      "findĠ": 2815,
      "Pre": 2816,
      "ever": 2817,
      "multi": 2818,
      "erĠthanĠ": 2819,
      "_object": 2820,
      "Lin": 2821,
      ":return:": 2822,
      "transform": 2823,
      "Rec": 2824,
      "S_": 2825,
      "permission": 2826,
      "isĠnotĠNone:ĊĠĠĠĠĠĠĠĠĠĠĠĠ": 2827,
      "}}": 2828,
      "stder": 2829,
      ".\"\"\"ĊdefĠget_": 2830,
      "IM": 2831,
      ".name": 2832,
      "utf": 2833,
      "resourceĠ": 2834,
      "e.g.Ġ": 2835,
      "entri": 2836,
      "wantĠ": 2837,
      "TE": 2838,
      "_form": 2839,
      "DBĠ": 2840,
      "expr": 2841,
      "GET": 2842,
      "sur": 2843,
      "custom": 2844,
      "(str):Ġ": 2845,
      "stand": 2846,
      "ewĠ": 2847,
      "ĊĠĠĠĠĠĠĠĠĠĠĠĠĠĠĠĠ#Ġ": 2848,
      "environment": 2849,
      "ish": 2850,
      "multipleĠ": 2851,
      "ĊĠĠĠĠĠĠĠĠ*compliance:ĠmandatoryĠ--ĠThisĠmethodĠmustĠbeĠimplemented.*": 2852,
      "plugin": 2853,
      "hour": 2854,
      "ity_": 2855,
      "next": 2856,
      "fy": 2857,
      "bound": 2858,
      "[str": 2859,
      "anag": 2860,
      "moduleĠ": 2861,
      "Out": 2862,
      "wav": 2863,
      "eventĠ": 2864,
      "tĠtheĠ": 2865,
      ".split('": 2866,
      "=False,Ġ": 2867,
      "non-": 2868,
      "sig": 2869,
      "TH": 2870,
      "ĊĊĉĉ": 2871,
      "radi": 2872,
      "setĠtoĠ": 2873,
      "'''ĊĠĠĠĠ": 2874,
      ".set_": 2875,
      "line.": 2876,
      "OP": 2877,
      "payload": 2878,
      "folder": 2879,
      "5.": 2880,
      "ä¸": 2881,
      "authentic": 2882,
      "Writ": 2883,
      "uallyĠ": 2884,
      "REQUI": 2885,
      "5Ġ": 2886,
      "invalid": 2887,
      "handler": 2888,
      "s\"": 2889,
      "role": 2890,
      "LE": 2891,
      "transaction": 2892,
      "Comm": 2893,
      "serverĠ": 2894,
      "ĊĊĠĠĠĠĠĠĠĠReturn": 2895,
      "notĠfound": 2896,
      "'],Ġ": 2897,
      "run_": 2898,
      "toĠuseĠ": 2899,
      "edĠfromĠ": 2900,
      "AWSĠ": 2901,
      "high": 2902,
      "iĠinĠrange(": 2903,
      "\"\"\"D": 2904,
      "leg": 2905,
      "'].": 2906,
      "</": 2907,
      "Tag": 2908,
      "gro": 2909,
      "setĠofĠ": 2910,
      "suchĠ": 2911,
      "[key": 2912,
      "ĠinĠself.": 2913,
      "UseĠ": 2914,
      "dict(": 2915,
      "compar": 2916,
      "Response": 2917,
      "ierarch": 2918,
      "again": 2919,
      "Ro": 2920,
      "sĠtoĠtheĠ": 2921,
      "Sh": 2922,
      "port_": 2923,
      "o.": 2924,
      "ffix": 2925,
      ")ĊĊĠĠĠĠreturnĠ": 2926,
      ",ĊĠĠĠĠĠĠĠĠĠĠĠĠĠĠĠĠĠĠĠĠ'": 2927,
      "_nameĠ": 2928,
      "indexĠ": 2929,
      "AB": 2930,
      "available": 2931,
      "aĠnewĠ": 2932,
      "anceĠ": 2933,
      "create": 2934,
      "es,Ġ": 2935,
      "REQUIRED": 2936,
      "application": 2937,
      "InĠ": 2938,
      "tick": 2939,
      ")ĊĊĠĠĠĠifĠ": 2940,
      "=0": 2941,
      "MĠ": 2942,
      "DataFr": 2943,
      "Format": 2944,
      "PermissionDeniedĠ-Ġ": 2945,
      "\"\"\"ĊĠĠĠĠĠĠĠĠ#Ġ": 2946,
      "differentĠ": 2947,
      "updateĠ": 2948,
      "Clo": 2949,
      ":Ġ{": 2950,
      "input_": 2951,
      ".ĊĠĠĠĠ:paramĠ": 2952,
      "sesĠ": 2953,
      "izeĠ": 2954,
      ":Ġ%s": 2955,
      ":ĊĠĠĠĠĠĠĠĠĠĠĠĠ#Ġ": 2956,
      "verbose": 2957,
      "{}Ġ": 2958,
      "node.": 2959,
      "ield": 2960,
      "ef": 2961,
      "pĠ=Ġ": 2962,
      "~~": 2963,
      "``,Ġ": 2964,
      "typeĠ=Ġ": 2965,
      "PermissionDeniedĠ-ĠauthorizationĠ": 2966,
      "float(": 2967,
      "IC": 2968,
      "mostĠ": 2969,
      ":Ġ``": 2970,
      "emptyĠ": 2971,
      "ToĠ": 2972,
      "ĊĠĠĠĠĠĠĠĠĠĠĠĠforĠ": 2973,
      "1Ġ=Ġ": 2974,
      "s:ĊĠĠĠĠĠĠ": 2975,
      "require": 2976,
      "user_": 2977,
      "MO": 2978,
      "proto": 2979,
      "s[\"": 2980,
      "ari": 2981,
      "retriev": 2982,
      "Calcul": 2983,
      "10.": 2984,
      "ix": 2985,
      "ution": 2986,
      "theĊĠĠĠĠ": 2987,
      "(p": 2988,
      "account": 2989,
      "wer": 2990,
      "returned": 2991,
      "data=": 2992,
      "month": 2993,
      "withoutĠ": 2994,
      "delĠ": 2995,
      "line_": 2996,
      "supportedĠ": 2997,
      "auth.": 2998,
      "::Ġ": 2999,
      "range": 3000,
      "img": 3001,
      "enumerate(": 3002,
      "sĠasĠ": 3003,
      "yĠtoĠ": 3004,
      "ĊĠĠĠĠĠĠĠĠ\"\"\"ĊĊĠĠĠĠĠĠĠĠ": 3005,
      "stanceĠ": 3006,
      ",ĊĠĠĠĠĠĠĠĠĠĠĠĠĠĠĠĠĠĠĠĠĠĠĠĠĠĠĠĠ": 3007,
      "_string": 3008,
      "theirĠ": 3009,
      "ReturnsĠ": 3010,
      "info('": 3011,
      "write_": 3012,
      "git": 3013,
      "keyĠ=Ġ": 3014,
      "flat": 3015,
      "CD": 3016,
      "includeĠ": 3017,
      "large": 3018,
      "faceĠ": 3019,
      "o_": 3020,
      "sĠisĠ": 3021,
      "wel": 3022,
      "ĠforĠtheĠ": 3023,
      "ary_": 3024,
      "allyĠ": 3025,
      ")Ċĉĉ": 3026,
      "cluster": 3027,
      "ET.": 3028,
      "verti": 3029,
      "AS": 3030,
      "rule": 3031,
      "trace": 3032,
      "mainĠ": 3033,
      "addition": 3034,
      "(name": 3035,
      "volum": 3036,
      "repositor": 3037,
      "ential": 3038,
      "):ĊĠĠĠĠ\"\"\"Ġ": 3039,
      "known": 3040,
      "client.": 3041,
      "Implement": 3042,
      "branch": 3043,
      "getattr(": 3044,
      "status_": 3045,
      "build": 3046,
      "zone": 3047,
      ")ĊĠĠĠĠĠĠĠĠĠĠĠĠelse:ĊĠĠĠĠĠĠĠĠĠĠĠĠĠĠĠĠ": 3048,
      "Form": 3049,
      "KE": 3050,
      "Network": 3051,
      "prox": 3052,
      ".ĊĠĠĠĠĠĠĠĠ:raiseĠ": 3053,
      "Args:ĊĠĠĠĠĠĠĠĠ": 3054,
      "exc": 3055,
      "He": 3056,
      "\\t": 3057,
      "PythonĠ": 3058,
      "24": 3059,
      "s)ĊĠĠĠĠ": 3060,
      "intoĠaĠ": 3061,
      "čĊĠĠĠĠĠĠĠĠifĠ": 3062,
      "variableĠ": 3063,
      "howĠ": 3064,
      "NumberĠ": 3065,
      "pathĠ=Ġ": 3066,
      "{}'.format(": 3067,
      "fetch": 3068,
      "edĠbyĠ": 3069,
      "cacheĠ": 3070,
      "):ĊĠĠĠĠĠĠĠĠ\"\"\"Ġ": 3071,
      "usingĠtheĠ": 3072,
      "ListĠofĠ": 3073,
      "api/": 3074,
      "runĠ": 3075,
      "ler": 3076,
      "ineĠ": 3077,
      "[-1]": 3078,
      "0000": 3079,
      "boolĠ": 3080,
      ",ĠifĠ": 3081,
      "waitĠ": 3082,
      "logĠ": 3083,
      "))ĊĠĠĠĠĠĠĠĠĠĠĠĠĠĠĠĠ": 3084,
      "raiseĠValueError(\"": 3085,
      "19": 3086,
      "registr": 3087,
      "WhenĠ": 3088,
      "disable": 3089,
      ")ĊĠĠĠĠĠĠĠĠĠĠĠĠreturnĠ": 3090,
      "commit": 3091,
      "fm": 3092,
      "w.": 3093,
      "Ġ=Ġ0": 3094,
      "sg": 3095,
      "ay": 3096,
      "until": 3097,
      "secon": 3098,
      "ĊĠĠĠĠĠĠĠĠĠĠĠĠĠĠĠĠĠĠĠĠ'": 3099,
      "automat": 3100,
      "Descri": 3101,
      "ReturnsĠtheĠ": 3102,
      "sĠtoĠbeĠ": 3103,
      "this": 3104,
      "textĠ=Ġ": 3105,
      "rangeĠ": 3106,
      "*Ġ(": 3107,
      "maximumĠ": 3108,
      "Code": 3109,
      "čĊčĊĠĠĠĠ": 3110,
      "JSONĠ": 3111,
      "SQ": 3112,
      "objects.": 3113,
      "0.0,Ġ": 3114,
      "cls,Ġ": 3115,
      "POST": 3116,
      "atta": 3117,
      "elyĠ": 3118,
      ":raise": 3119,
      "ust": 3120,
      "itor": 3121,
      "dump": 3122,
      "responseĠ=Ġ": 3123,
      "FAUL": 3124,
      "DEFAUL": 3125,
      ")ĊĠĠĠĠĠĠĠĠ#Ġ": 3126,
      "keywordĠ": 3127,
      "sql": 3128,
      "1}": 3129,
      "'.join(": 3130,
      "sat": 3131,
      ".ĊĠĠĠĠĠĠĠĠĊĠĠĠĠĠĠĠĠ": 3132,
      "hyd": 3133,
      "perform": 3134,
      "ger": 3135,
      "verĠ": 3136,
      "partĠ": 3137,
      "Speci": 3138,
      "dt": 3139,
      "nan": 3140,
      "sorted": 3141,
      ",ĠĠ": 3142,
      "don'tĠ": 3143,
      "play": 3144,
      "databaseĠ": 3145,
      "vertex": 3146,
      "ReturnsĠaĠ": 3147,
      "ĠĠĠĠĠĠĠĠĠ": 3148,
      "extend": 3149,
      "window": 3150,
      "chron": 3151,
      "ularĠ": 3152,
      ".ĊĊĠĠĠĠ:typeĠ": 3153,
      "_name__": 3154,
      "skip": 3155,
      "nextĠ": 3156,
      "``ĠisĠ``null``ĊĠĠĠĠĠĠĠĠraise:ĠĠOperationFailedĠ-ĠunableĠtoĠcompleteĠrequestĊĠĠĠĠĠĠĠĠraise:ĠĠ": 3157,
      "colorĠ": 3158,
      "TYPE": 3159,
      "`ĊĠĠĠĠĠĠĠĠ": 3160,
      "2Ġ=Ġ": 3161,
      "We": 3162,
      "sli": 3163,
      "(b": 3164,
      "beingĠ": 3165,
      "right": 3166,
      "schema": 3167,
      "destin": 3168,
      "exists(": 3169,
      "forĠthisĠ": 3170,
      "checkĠ": 3171,
      "evalu": 3172,
      "ar_": 3173,
      "':Ġ<Ġ": 3174,
      "):ĊĠĠĠĠĠĠĠĠĠĠĠĠreturnĠ": 3175,
      "ures": 3176,
      "sci": 3177,
      "()ĊĊĠĠĠĠĠĠĠĠ": 3178,
      "headerĠ": 3179,
      "v.": 3180,
      "vector": 3181,
      "uuid": 3182,
      "tak": 3183,
      "relationship": 3184,
      "template_": 3185,
      "metadataĠ": 3186,
      "merg": 3187,
      "cr": 3188,
      "{ĊĠĠĠĠĠĠĠĠĠĠĠĠĠĠĠĠ'": 3189,
      "Ġ=Ġ[]": 3190,
      "list_": 3191,
      "model_": 3192,
      "Look": 3193,
      "that": 3194,
      "WeĠ": 3195,
      "writeĠ": 3196,
      "':Ġ'string',ĊĠĠĠĠĠĠĠĠĠĠĠĠ'": 3197,
      "11": 3198,
      "request,Ġ": 3199,
      "nĠ": 3200,
      "EX": 3201,
      "Model": 3202,
      "serviceĠ": 3203,
      "&Ġ": 3204,
      "%d": 3205,
      "derĠ": 3206,
      "sĠ=Ġ{}": 3207,
      "does": 3208,
      "username": 3209,
      "[k": 3210,
      "eff": 3211,
      "obj.": 3212,
      "cess": 3213,
      "array(": 3214,
      "Configur": 3215,
      "neg": 3216,
      "indicat": 3217,
      "'ĊĠĠĠĠ": 3218,
      "_C": 3219,
      "debug('": 3220,
      "pen": 3221,
      "de_": 3222,
      "intern": 3223,
      "cationĠ": 3224,
      "usĠ": 3225,
      "igr": 3226,
      "ecauseĠ": 3227,
      "org/": 3228,
      "50": 3229,
      "shif": 3230,
      ".ĊĊĠĠĠĠĠĠĠĠArgs:ĊĠĠĠĠĠĠĠĠĠĠĠĠ": 3231,
      "ĊĠĠĠĠ:return:Ġ": 3232,
      "basedĠonĠ": 3233,
      ",ĠbutĠ": 3234,
      "upper": 3235,
      "unique": 3236,
      "straint": 3237,
      "Ho": 3238,
      "s))": 3239,
      "signal": 3240,
      "shapeĠ": 3241,
      "lon": 3242,
      "rowĠ": 3243,
      "nest": 3244,
      "_info": 3245,
      "raiseĠValueError('": 3246,
      "FalseĠ": 3247,
      "\\ĊĠĠĠĠĠĠĠĠĠĠĠĠ": 3248,
      "pop('": 3249,
      "next_": 3250,
      "')ĊĊĠĠĠĠĠĠĠĠ": 3251,
      "exit": 3252,
      "valueĠisĠ": 3253,
      "idĠ=Ġ": 3254,
      "Optional": 3255,
      "(0": 3256,
      "Iter": 3257,
      "'ĊĠĠĠĠĠĠĠĠĠĠĠĠ": 3258,
      "TypeĠ": 3259,
      "cro": 3260,
      "Graph": 3261,
      "'}": 3262,
      "ifĠself.": 3263,
      "addedĠ": 3264,
      "Ċĉĉĉĉĉ": 3265,
      "(int": 3266,
      "js": 3267,
      "ength": 3268,
      "ploy": 3269,
      "arrayĠofĠ": 3270,
      "4,Ġ": 3271,
      "ĊĠĠĠĠĠĠĠĠ``": 3272,
      "================": 3273,
      "parentĠ": 3274,
      "containingĠtheĠ": 3275,
      "valueĠofĠ": 3276,
      "ous": 3277,
      "has_": 3278,
      "queĠ": 3279,
      ".com/": 3280,
      "pageĠ": 3281,
      "ĠwithĠ": 3282,
      "sed": 3283,
      "ization": 3284,
      "dr": 3285,
      "returnĠtheĠ": 3286,
      "ExceptionĠasĠ": 3287,
      "ates": 3288,
      "wait": 3289,
      "Conne": 3290,
      "receiv": 3291,
      "distribut": 3292,
      ":func": 3293,
      "_P": 3294,
      "out_": 3295,
      "distance": 3296,
      "referenceĠ": 3297,
      "\"ĊĠĠĠĠ": 3298,
      "Runtime": 3299,
      "ker": 3300,
      "date_": 3301,
      "uplic": 3302,
      "where": 3303,
      "course": 3304,
      "veĠ": 3305,
      "ConvertĠ": 3306,
      "ible": 3307,
      "tyĠ": 3308,
      "containĠ": 3309,
      "scope": 3310,
      "33": 3311,
      "Call": 3312,
      "revision": 3313,
      "tab": 3314,
      "publish": 3315,
      "score": 3316,
      "čĊčĊĠĠĠĠĠĠĠĠ#Ġ": 3317,
      "xĠinĠ": 3318,
      "recur": 3319,
      "Metho": 3320,
      "\":": 3321,
      "dtype=": 3322,
      "lear": 3323,
      "program": 3324,
      "file,Ġ": 3325,
      "acc": 3326,
      "remove_": 3327,
      "fullĠ": 3328,
      "p,Ġ": 3329,
      "'/": 3330,
      "(np.": 3331,
      "Acces": 3332,
      "icallyĠ": 3333,
      "HTTPĠ": 3334,
      "NotFoundĠ": 3335,
      ":class:`~": 3336,
      "cache_": 3337,
      "total": 3338,
      "KEY": 3339,
      "tification": 3340,
      "ite": 3341,
      "]]": 3342,
      "s',Ġ": 3343,
      "edĠtoĠbeĠ": 3344,
      "raw_": 3345,
      "cover": 3346,
      "']['": 3347,
      "ĊĠĠĠĠĠĠĠĠifĠnotĠ": 3348,
      "placeĠ": 3349,
      "spaceĠ": 3350,
      "localĠ": 3351,
      ",ĠoptionalĊĠĠĠĠĠĠĠĠ": 3352,
      ")ĠasĠ": 3353,
      "success": 3354,
      "NAM": 3355,
      ")ĊĠĠĠĠĠĠĠĠforĠ": 3356,
      "HE": 3357,
      "late": 3358,
      "ally": 3359,
      "filterĠ": 3360,
      ")ĠifĠ": 3361,
      "array_": 3362,
      "session.": 3363,
      "wrapper": 3364,
      "DataFrame": 3365,
      "ement": 3366,
      "shot": 3367,
      "comput": 3368,
      "va": 3369,
      "socket": 3370,
      "tokenĠ": 3371,
      "=True,Ġ": 3372,
      "access_": 3373,
      "forĠeachĠ": 3374,
      "qual": 3375,
      "groupĠ": 3376,
      "Wor": 3377,
      "reĠ": 3378,
      "Ġ=Ġ[": 3379,
      "except": 3380,
      "of_": 3381,
      "40": 3382,
      "configĠ": 3383,
      "aw": 3384,
      "old_": 3385,
      "partition": 3386,
      "IdĠ": 3387,
      ">>>ĠfromĠ": 3388,
      "0.5": 3389,
      "utf-8": 3390,
      "ated_": 3391,
      "XMLĠ": 3392,
      "Ac": 3393,
      "ped": 3394,
      "patch": 3395,
      "progres": 3396,
      "ofĠtypeĠ": 3397,
      ")\"\"\"ĊdefĠ": 3398,
      "else:": 3399,
      "stomĠ": 3400,
      "provided": 3401,
      "info(\"": 3402,
      "parser.add_": 3403,
      "my": 3404,
      "formatĠ": 3405,
      "80": 3406,
      "_label": 3407,
      "sw": 3408,
      "iled": 3409,
      "Ġì": 3410,
      "mail": 3411,
      "==Ġ\"": 3412,
      "ĊĠĠĠĠĠĠĠĠ:rtype:Ġ": 3413,
      "rawĠ": 3414,
      "Arra": 3415,
      "secondĠ": 3416,
      "','": 3417,
      "alway": 3418,
      "ationĠofĠ": 3419,
      "ick": 3420,
      "engin": 3421,
      "Identifi": 3422,
      "IS": 3423,
      "utils.": 3424,
      "sym": 3425,
      "hex": 3426,
      "settings.": 3427,
      "PermissionDeniedĠ-ĠauthorizationĠfailure": 3428,
      "]['": 3429,
      "tt": 3430,
      "rest": 3431,
      "()ĊĠĠĠĠĠĠĠĠĠĠĠĠĠĠĠĠ": 3432,
      "Dis": 3433,
      "|ĊĠĠĠĠĠĠĠĠ": 3434,
      ":ĠĠ#Ġ": 3435,
      "ĊĠĠĠĠĠĠĠĠraise:ĠĠNullArgumentĠ-Ġ``": 3436,
      "resource.": 3437,
      "direction": 3438,
      "libr": 3439,
      "integerĠ": 3440,
      "otherwiseĠ": 3441,
      "ek": 3442,
      "iĠinĠ": 3443,
      "vĠinĠ": 3444,
      "ĊĊĉ": 3445,
      "who": 3446,
      "ĊĠĠĠĠĠĠĠĠelifĠ": 3447,
      "columnĠ": 3448,
      ":func:`": 3449,
      "ĠĠĠ'": 3450,
      "entryĠ": 3451,
      "sĊĊĠĠĠĠĠĠĠĠ": 3452,
      "ĊĠĠĠĠelse:ĊĠĠĠĠĠĠĠĠ": 3453,
      "numpyĠ": 3454,
      "[0],Ġ": 3455,
      "lea": 3456,
      "modeĠ": 3457,
      "sort": 3458,
      "gorith": 3459,
      "\")ĊĠĠĠĠĠĠĠĠĠĠĠĠ": 3460,
      "filepath": 3461,
      "66": 3462,
      "gradebook": 3463,
      "y(": 3464,
      ".ĊĊĠĠĠĠParametersĊĠĠĠĠ----------ĊĠĠĠĠ": 3465,
      "tax": 3466,
      "ĊĠĠĠĠĠĠĠĠĠĠĠĠself.": 3467,
      "handleĠ": 3468,
      "tools.": 3469,
      "meth:`": 3470,
      "testĠ": 3471,
      "send": 3472,
      "indice": 3473,
      "[:,Ġ": 3474,
      "wo": 3475,
      "HTTP": 3476,
      "annot": 3477,
      "filesĠ": 3478,
      "stderr": 3479,
      "ient": 3480,
      "bucket": 3481,
      "es_": 3482,
      "ment_": 3483,
      "keyword": 3484,
      "{}\".format(": 3485,
      "otherwise": 3486,
      "returnsĠaĠ": 3487,
      "record_": 3488,
      "(osid.id.Id):ĠtheĠ": 3489,
      "'%s": 3490,
      "deviceĠ": 3491,
      "grid": 3492,
      "',ĊĠĠĠĠĠĠĠĠ": 3493,
      "ach": 3494,
      "v6": 3495,
      "Tra": 3496,
      "XĠ": 3497,
      "',ĊĠĠĠĠĠĠĠĠĠĠĠĠ'": 3498,
      "Max": 3499,
      "oldĠ": 3500,
      "Test": 3501,
      "men": 3502,
      "issue": 3503,
      ",ĊĠĠĠĠĠĠĠĠĠĠĠĠĠĠĠĠĠĠĠĠĠĠĠĠĠĠĠĠĠĠĠĠĠĠĠĠĠĠĠĠĠĠĠĠĠĠĠĠĠĠĠĠĠĠĠĠ": 3504,
      "IG": 3505,
      "emb": 3506,
      ":ĊĠĠĠĠĠĠĠĠifĠ": 3507,
      "'Ġ(": 3508,
      ",ĊĠĠĠĠĠĠĠĠĠĠĠĠĠĠĠĠĠĠĠĠĠĠĠĠĠĠĠĠĠĠĠĠĠĠĠĠĠĠĠĠĠĠĠĠĠĠĠĠ": 3509,
      "Updat": 3510,
      "VER": 3511,
      "clientĠ": 3512,
      "inv": 3513,
      ",Ġn": 3514,
      "poly": 3515,
      "LOG": 3516,
      "attem": 3517,
      "stri": 3518,
      ")ĊĠĠĠĠelse:ĊĠĠĠĠĠĠĠĠ": 3519,
      "**Ġ": 3520,
      "cmd": 3521,
      "randomĠ": 3522,
      "requests.": 3523,
      "By": 3524,
      "combin": 3525,
      "edĠ=Ġ": 3526,
      "environmentĠ": 3527,
      "'))": 3528,
      "series": 3529,
      "e.Ġ": 3530,
      "led": 3531,
      "Ġ\"": 3532,
      "lessĠ": 3533,
      "(d": 3534,
      "US": 3535,
      "eg": 3536,
      ",ĊĠĠĠĠĠĠĠĠĠĠĠĠ\"": 3537,
      "compu": 3538,
      "15": 3539,
      "_re": 3540,
      "bas": 3541,
      "s=None,Ġ": 3542,
      "amil": 3543,
      "keyĠinĠ": 3544,
      ".get(\"": 3545,
      "registe": 3546,
      "_for_": 3547,
      "jang": 3548,
      "=None):ĊĠĠĠĠĠĠĠĠ\"\"\"ĊĠĠĠĠĠĠĠĠ": 3549,
      "NotFound": 3550,
      "D_": 3551,
      "core.": 3552,
      "parseĠ": 3553,
      "Query": 3554,
      "theseĠ": 3555,
      "KeyError": 3556,
      "structure": 3557,
      "appro": 3558,
      "setup": 3559,
      "sr": 3560,
      "itemĠ": 3561,
      "filter(": 3562,
      "nee": 3563,
      "2_": 3564,
      "insteadĠ": 3565,
      "fer": 3566,
      "ĠisĠNone": 3567,
      "send_": 3568,
      "idd": 3569,
      "height": 3570,
      "specified": 3571,
      "NumberĠofĠ": 3572,
      "json_": 3573,
      "75": 3574,
      "intoĠtheĠ": 3575,
      "neigh": 3576,
      "sĠ=Ġnp.": 3577,
      "frameĠ": 3578,
      "simul": 3579,
      "',ĊĠĠĠĠĠĠĠĠĠĠĠĠĠĠĠĠĠĠĠĠĠĠĠĠ": 3580,
      "degre": 3581,
      "large'|'": 3582,
      "objective_bank": 3583,
      "self.get_": 3584,
      "())": 3585,
      "Star": 3586,
      "side": 3587,
      "buildĠ": 3588,
      "rootĠ": 3589,
      ":ĠaĠ": 3590,
      "created": 3591,
      "itch": 3592,
      "LoadĠ": 3593,
      "prop": 3594,
      "occur": 3595,
      "k.": 3596,
      "Mult": 3597,
      ")Ġ*Ġ": 3598,
      "ason": 3599,
      ":]": 3600,
      "apshot": 3601,
      "suffix": 3602,
      "inten": 3603,
      ".ĠDefault": 3604,
      "item_": 3605,
      "NoteĠ": 3606,
      "api.": 3607,
      ".__": 3608,
      "uteĠ": 3609,
      "\"\"\"ReturnĠ": 3610,
      "topic": 3611,
      "orĠ``": 3612,
      "izedĠ": 3613,
      "here": 3614,
      "SubElement": 3615,
      "Table": 3616,
      "s_to_": 3617,
      "tif": 3618,
      "suppli": 3619,
      "childĠ": 3620,
      "tmp": 3621,
      "namespace": 3622,
      "quo": 3623,
      "Other": 3624,
      "ifĠlen(": 3625,
      "State": 3626,
      "box": 3627,
      "llĠ": 3628,
      "Unimplement": 3629,
      "ThisĠisĠ": 3630,
      "essage": 3631,
      ".ĊĊĠĠĠĠĠĠĠĠParametersĊĠĠĠĠĠĠĠĠ----------ĊĠĠĠĠĠĠĠĠ": 3632,
      "child_": 3633,
      "subject": 3634,
      "Uni": 3635,
      "equip": 3636,
      "mapping": 3637,
      "MP": 3638,
      "Info": 3639,
      "count_": 3640,
      "repository_": 3641,
      "ifĠnotĠisinstance(": 3642,
      "DEFAULT_": 3643,
      "pand": 3644,
      "needĠtoĠ": 3645,
      ",ĠthenĠ": 3646,
      ":meth:`": 3647,
      "rom": 3648,
      ".\"\"\"ĊĠĠĠĠĠĠĠĠ": 3649,
      "Trans": 3650,
      "doesn'tĠ": 3651,
      "[self.": 3652,
      "arr": 3653,
      "name(": 3654,
      "2)": 3655,
      "eno": 3656,
      "()``ĠisĠ``": 3657,
      "params=": 3658,
      "...Ġ": 3659,
      "ValueĠ": 3660,
      "1,": 3661,
      "yam": 3662,
      ")Ġ/Ġ": 3663,
      "download": 3664,
      "').": 3665,
      "mit": 3666,
      "appli": 3667,
      "EL": 3668,
      "customĠ": 3669,
      "(default": 3670,
      "ReturnĠtheĠ": 3671,
      "[i]": 3672,
      "DAT": 3673,
      "abilityĠ": 3674,
      "1_": 3675,
      "rt": 3676,
      "sam": 3677,
      "delta": 3678,
      "ie": 3679,
      "page_": 3680,
      "14": 3681,
      "pool": 3682,
      "meas": 3683,
      "returnsĠtheĠ": 3684,
      "ReadĠ": 3685,
      "13": 3686,
      "esĠaĠ": 3687,
      "InvalidĠ": 3688,
      "property": 3689,
      "a,Ġ": 3690,
      "orĠ'": 3691,
      "ĊĠĠĠĠĠĠĠĠĠĠĠĠĠĠĠĠĠĠĠĠĠĠĠĠĠĠĠĠĠĠĠĠĠĠĠĠ": 3692,
      "batch": 3693,
      "functionĠtoĠ": 3694,
      "lengthĠ": 3695,
      "clusterĠ": 3696,
      "_h": 3697,
      "dri": 3698,
      "numer": 3699,
      "metric": 3700,
      "(*": 3701,
      "trueĠ": 3702,
      "Otherw": 3703,
      "prepa": 3704,
      "):ĊĠĠĠĠĠĠĠĠ'''": 3705,
      "[0": 3706,
      "ATH": 3707,
      "recordĠ": 3708,
      "aĊĠĠĠĠĠĠĠĠ": 3709,
      "comp": 3710,
      "fileĠ=Ġ": 3711,
      "with_": 3712,
      "titleĠ": 3713,
      "estim": 3714,
      "wantĠtoĠ": 3715,
      "nt": 3716,
      "withĠopen(": 3717,
      "scan": 3718,
      "process.": 3719,
      ".get(": 3720,
      "NĠ": 3721,
      "Whe": 3722,
      "ine": 3723,
      "ation.": 3724,
      "failedĠ": 3725,
      "ĊĠĠĠĠĠĠĠĠĠĠĠĠĠĠĠĠĠĠĠĠ#Ġ": 3726,
      "limitĠ": 3727,
      "search_": 3728,
      "great": 3729,
      "plat": 3730,
      "(dict": 3731,
      "Event": 3732,
      "achĠ": 3733,
      "csv": 3734,
      "orĠaĠ": 3735,
      "viewĠ": 3736,
      "logger.debug(\"": 3737,
      "AttributeError": 3738,
      "(value": 3739,
      "cam": 3740,
      "ifĠisinstance(": 3741,
      "list,Ġ": 3742,
      "ĊĠĠĠĠĠĠĠĠ'": 3743,
      "return_": 3744,
      "_sub": 3745,
      "')ĠasĠ": 3746,
      ")ĊĠĠĠĠĠĠĠĠĠĠĠĠĠĠĠĠĠĠĠĠĠĠĠĠ": 3747,
      "IL": 3748,
      "ĠisĠnotĠNone": 3749,
      "WhetherĠ": 3750,
      "expi": 3751,
      "CreateĠ": 3752,
      "Bin": 3753,
      "TR": 3754,
      "thing": 3755,
      "@typeĠ": 3756,
      "under": 3757,
      "plot_": 3758,
      "sĠimportĠ": 3759,
      "))ĊĊĠĠĠĠĠĠĠĠ": 3760,
      "add(": 3761,
      "make_": 3762,
      "desi": 3763,
      "Assessment": 3764,
      "choice": 3765,
      "againstĠ": 3766,
      "),ĊĠĠĠĠĠĠĠĠĠĠĠĠ": 3767,
      "sĠallĠ": 3768,
      "type,Ġ": 3769,
      "keys()": 3770,
      "attach": 3771,
      "[1:": 3772,
      "cĠ=Ġ": 3773,
      "data[\"": 3774,
      "per_": 3775,
      "map['": 3776,
      "rat": 3777,
      "sĊĊĠĠĠĠ": 3778,
      "src": 3779,
      ":Ġdict": 3780,
      "file(": 3781,
      "na": 3782,
      "dete": 3783,
      "deploy": 3784,
      ":Ġfloat": 3785,
      "parser.add_argument": 3786,
      ":ĠifĠ": 3787,
      "valueĠinĠ": 3788,
      "18": 3789,
      "_str": 3790,
      "dev": 3791,
      "import": 3792,
      "self._get_": 3793,
      "zeros(": 3794,
      ":Ġ'": 3795,
      "couldĠ": 3796,
      "age(": 3797,
      "ReturnĠaĠ": 3798,
      "core": 3799,
      "characterĠ": 3800,
      "[REQUIRED": 3801,
      "duplic": 3802,
      "mu": 3803,
      "tĠinĠ": 3804,
      "sampleĠ": 3805,
      "sĠonĠ": 3806,
      "Asset": 3807,
      "'):ĊĠĠĠĠĠĠĠĠĠĠĠĠ": 3808,
      "lap": 3809,
      "s`": 3810,
      ",Ġ**kwargs": 3811,
      "array([": 3812,
      "distribution": 3813,
      "SubElement(": 3814,
      "pip": 3815,
      "ĊĠĠĠĠĠĠĠĠself._": 3816,
      "Record": 3817,
      "configure": 3818,
      "describ": 3819,
      "equalĠ": 3820,
      "fluxes.": 3821,
      "datasetĠ": 3822,
      "counter": 3823,
      "fact": 3824,
      "file_path": 3825,
      "login": 3826,
      "hook": 3827,
      "Cor": 3828,
      "temp": 3829,
      "accept": 3830,
      "OPTION": 3831,
      "lst": 3832,
      ":ĠIfĠ": 3833,
      "AĠlistĠofĠ": 3834,
      "matchingĠ": 3835,
      "everyĠ": 3836,
      "ha": 3837,
      ")ĊĠĠĠĠĠĠĠĠself._": 3838,
      "pathĠtoĠ": 3839,
      "apiĠ": 3840,
      "tm": 3841,
      "storedĠ": 3842,
      "ell": 3843,
      "ParseĠ": 3844,
      "originalĠ": 3845,
      "%(": 3846,
      "keep": 3847,
      "callable": 3848,
      "identifierĠ": 3849,
      "k_": 3850,
      "Result": 3851,
      "uniqueĠ": 3852,
      "tree": 3853,
      "locat": 3854,
      "linesĠ": 3855,
      "subscri": 3856,
      "kwargs.pop('": 3857,
      "contextĠ": 3858,
      ")ĊĠĠĠĠĠĠĠĠelifĠ": 3859,
      "):ĊĠĠĠĠĠĠĠĠifĠ": 3860,
      "append('": 3861,
      "ErrorĠasĠ": 3862,
      "jsonĠ": 3863,
      "':ĊĠĠĠĠĠĠĠĠĠĠĠĠ": 3864,
      "app.": 3865,
      "IR": 3866,
      "composition": 3867,
      "compres": 3868,
      "offsetĠ": 3869,
      "neighb": 3870,
      "ont": 3871,
      "changeĠ": 3872,
      "ĊĠĠĠĠĠĠĠĠĠĠĠĠĊĊĠĠĠĠ:typeĠ": 3873,
      "it'sĠ": 3874,
      "type_": 3875,
      "statusĠ": 3876,
      "Lookup": 3877,
      "algorith": 3878,
      "es(": 3879,
      "ithub": 3880,
      "Sequen": 3881,
      "':Ġ'string',ĊĠĠĠĠĠĠĠĠĠĠĠĠĠĠĠĠ'": 3882,
      "mbol": 3883,
      ".\"": 3884,
      "b_": 3885,
      "IDĠ": 3886,
      "CheckĠ": 3887,
      ":ĊĠĠĠĠĠĠĠĠĠĠĠĠĠĠĠĠreturnĠ": 3888,
      "atesĠaĠ": 3889,
      "alias": 3890,
      "\"\"\"GetsĠtheĠ": 3891,
      "need": 3892,
      "node_": 3893,
      "container": 3894,
      "display_": 3895,
      "Hel": 3896,
      ")ĊĠĠĠĠĠĠĠĠĠĠĠĠself.": 3897,
      "Exist": 3898,
      "validate_": 3899,
      "angle": 3900,
      "{1}": 3901,
      "click": 3902,
      "Addres": 3903,
      "Dele": 3904,
      "generator": 3905,
      "UM": 3906,
      "}'.format(": 3907,
      "ĊĠĠĠĠĠĠĠĠĠĠĠĠĠĠĠĠĠĠĠĠifĠ": 3908,
      "becauseĠ": 3909,
      "OS": 3910,
      "sa": 3911,
      "absol": 3912,
      "agg": 3913,
      ".ĊĊĠĠĠĠĠĠĠĠReturns:ĊĠĠĠĠĠĠĠĠĠĠĠĠ": 3914,
      ".shape": 3915,
      "n,Ġ": 3916,
      "validation": 3917,
      "TER": 3918,
      "appl": 3919,
      "secret": 3920,
      "pc": 3921,
      "Returns:ĊĠĠĠĠĠĠĠĠ": 3922,
      "standardĠ": 3923,
      ")Ċ": 3924,
      "tz": 3925,
      "ifĠitĠ": 3926,
      "params,Ġ": 3927,
      "NoneĠandĠ": 3928,
      "\",": 3929,
      "hasattr(": 3930,
      "xx": 3931,
      ":ĊĠĠĠĠĠĠĠĠĠĠĠĠĠĠĠĠ#Ġ": 3932,
      "GetĠtheĠ": 3933,
      "HD": 3934,
      "std": 3935,
      "foo": 3936,
      "setĠ=Ġ": 3937,
      "ources": 3938,
      "prior": 3939,
      ").Ġ": 3940,
      "nel": 3941,
      "incre": 3942,
      "istic": 3943,
      "putĠ=Ġ": 3944,
      "URLĠ": 3945,
      "s.ĠĠ": 3946,
      "untĠ": 3947,
      "Ġ!=Ġ": 3948,
      "):ĊĠĠĠĠĠĠĠĠĠĠĠĠĠĠĠĠĠĠĠĠĠĠĠĠ": 3949,
      "30": 3950,
      "repe": 3951,
      "()``Ġ": 3952,
      "values": 3953,
      "bothĠ": 3954,
      "bund": 3955,
      ")ĠinĠ": 3956,
      "wouldĠ": 3957,
      "secur": 3958,
      "fut": 3959,
      "question": 3960,
      "kwargs['": 3961,
      "Map": 3962,
      "},Ġ": 3963,
      "thingĠ": 3964,
      "initial": 3965,
      "sĠthatĠareĠ": 3966,
      "hierarch": 3967,
      ":ĊĠĠĠĠĠĠĠĠĠĠĠĠĠĠĠĠifĠ": 3968,
      "datetime": 3969,
      "loadedĠ": 3970,
      "xlarge'|'": 3971,
      ".*": 3972,
      "Manag": 3973,
      "perim": 3974,
      "addr": 3975,
      "axisĠ": 3976,
      "mayĠbeĠ": 3977,
      ")Ġ--Ġ": 3978,
      "urlĠ=Ġ": 3979,
      "Description": 3980,
      "_nameĠ=Ġ": 3981,
      "equal": 3982,
      "adj": 3983,
      "thatĠisĠ": 3984,
      "duration": 3985,
      "distanceĠ": 3986,
      "const": 3987,
      "keys(": 3988,
      "pick": 3989,
      "CreateĠaĠ": 3990,
      "reci": 3991,
      "nameĠinĠ": 3992,
      "floatĠ": 3993,
      "[2": 3994,
      "(c": 3995,
      ".lower": 3996,
      "instanceĠofĠ": 3997,
      "CON": 3998,
      "toĊĠĠĠĠĠĠĠĠ": 3999,
      ")ĊĠĠĠĠ#Ġ": 4000,
      "generatorĠ": 4001,
      "register": 4002,
      "proble": 4003,
      "nowĠ": 4004,
      "thoseĠ": 4005,
      "HTM": 4006,
      "storeĠ": 4007,
      "take": 4008,
      "aĠvalidĠ": 4009,
      "none": 4010,
      "len(self.": 4011,
      ")ĊĠĠĠĠĠĠĠĠĠĠĠĠĠĠĠĠifĠ": 4012,
      "taskĠ": 4013,
      "',ĊĠĠĠĠĠĠĠĠĠĠĠĠ": 4014,
      "fp": 4015,
      "trig": 4016,
      "warn": 4017,
      "=self._runtime": 4018,
      "runtime=self._runtime": 4019,
      "60": 4020,
      "feat": 4021,
      "Vari": 4022,
      ".ĊĠĠĠĠĊĠĠĠĠ": 4023,
      "missingĠ": 4024,
      "TODO:Ġ": 4025,
      "NotFoundĠ-Ġ``": 4026,
      "obj,Ġ": 4027,
      "code,Ġ": 4028,
      "Inte": 4029,
      ".find": 4030,
      ",ĠitĠ": 4031,
      "sinceĠ": 4032,
      "ities": 4033,
      "ent_": 4034,
      ":ĊĠĠĠĠĠĠĠĠ#Ġ": 4035,
      "ape": 4036,
      "ram": 4037,
      "|False": 4038,
      "percent": 4039,
      "print_": 4040,
      "os.path.exists(": 4041,
      "s.ĊĊĠĠĠĠĠĠĠĠ:paramĠ": 4042,
      "treeĠ": 4043,
      "image_": 4044,
      "=Ġ'": 4045,
      "compat": 4046,
      "Init": 4047,
      "ERR": 4048,
      "pythonĠ": 4049,
      "ĊĠĠĠĠĠĠĠ": 4050,
      "get('": 4051,
      "language": 4052,
      "txt": 4053,
      "gh": 4054,
      "ĊĠĠĠĠĠĠĠĠĠĠĠĠreturnĠ": 4055,
      "transl": 4056,
      "complete": 4057,
      "RequiredĠ": 4058,
      "\"\"\"ĊĠĠĠĠĠĠĠĠ#ĠImplement": 4059,
      "Input": 4060,
      "\"\"\"ĊĠĠĠĠĠĠĠĠ#ĠImplementedĠfromĠ": 4061,
      "anotherĠ": 4062,
      "amen": 4063,
      "senten": 4064,
      "done": 4065,
      "devi": 4066,
      "interfaceĠ": 4067,
      "bitĠ": 4068,
      "'),Ġ": 4069,
      "event_": 4070,
      "layer": 4071,
      "Buil": 4072,
      "entry_": 4073,
      "FindĠ": 4074,
      "MM": 4075,
      "crit": 4076,
      "invalidĠ": 4077,
      "removeĠ": 4078,
      "edge_": 4079,
      "XML": 4080,
      ".value": 4081,
      "backend": 4082,
      "pret": 4083,
      "\"\"\"Ċĉĉ": 4084,
      "filter_": 4085,
      "54": 4086,
      "Source": 4087,
      "Number": 4088,
      "Class": 4089,
      "Bank": 4090,
      "minute": 4091,
      "theĊĠĠĠĠĠĠĠĠĠĠĠĠ": 4092,
      "currentlyĠ": 4093,
      "ft": 4094,
      "exc_": 4095,
      "passwordĠ": 4096,
      "ingĊĠĠĠĠĠĠĠĠ": 4097,
      "ullĠ": 4098,
      "runningĠ": 4099,
      "convertĠ": 4100,
      ".ĠForĠexample": 4101,
      "sendĠ": 4102,
      "bind": 4103,
      ")Ġ-ĠtheĠ": 4104,
      "credential": 4105,
      "remain": 4106,
      "ader": 4107,
      "Parser": 4108,
      "getĠtheĠ": 4109,
      "supported": 4110,
      "sep": 4111,
      "StringĠ": 4112,
      "3_": 4113,
      "ld": 4114,
      "documentĠ": 4115,
      "expectedĠ": 4116,
      "decim": 4117,
      "levelĠ": 4118,
      "::ĊĊĠĠĠĠĠĠĠĠĠĠĠĠ": 4119,
      "(2": 4120,
      "Wrap": 4121,
      "help='": 4122,
      "ik": 4123,
      "pol": 4124,
      "):ĊĠĠĠĠĠĠĠĠreturnĠ": 4125,
      "throughĠ": 4126,
      "xĠ=Ġ": 4127,
      "classe": 4128,
      "Web": 4129,
      ".read": 4130,
      "Tok": 4131,
      "ĊĊĠĠĠĠĠĠĠĠĠĠĠĠifĠ": 4132,
      "Act": 4133,
      "IPĠ": 4134,
      "Ġ+=Ġ": 4135,
      ".replace": 4136,
      "UB": 4137,
      ")ĊĠĠĠĠĠĠĠĠĠĠĠĠexceptĠ": 4138,
      "ION": 4139,
      "rev": 4140,
      "ative": 4141,
      "unitĠ": 4142,
      "Vi": 4143,
      "pend": 4144,
      "strip()": 4145,
      "associatedĠwithĠtheĠ": 4146,
      "Giv": 4147,
      "gn": 4148,
      ",ĠthisĠ": 4149,
      "NoneĠorĠ": 4150,
      "OnlyĠ": 4151,
      "sĠfromĠtheĠ": 4152,
      "`ĠandĠ": 4153,
      "change": 4154,
      "SetĠtheĠ": 4155,
      "Objective": 4156,
      "vlan": 4157,
      "\"ĊĠĠĠĠĠĠĠĠĠĠĠĠ": 4158,
      "(0,Ġ": 4159,
      "api_": 4160,
      "necess": 4161,
      "``ĠorĠ``": 4162,
      "first_": 4163,
      "Date": 4164,
      "gĠ": 4165,
      "smo": 4166,
      "resource_": 4167,
      "hasĠbeenĠ": 4168,
      ",ĠoptionalĊĠĠĠĠĠĠĠĠĠĠĠĠ": 4169,
      "_,Ġ": 4170,
      "categ": 4171,
      "aver": 4172,
      "mlĠ": 4173,
      "math:`": 4174,
      "returnĠself._": 4175,
      "cast": 4176,
      "ARN": 4177,
      "delete_": 4178,
      "Sto": 4179,
      "ce_": 4180,
      "assĠ": 4181,
      "sideĠ": 4182,
      "sock": 4183,
      "remove": 4184,
      "github": 4185,
      "flowĠ": 4186,
      "leastĠ": 4187,
      "%r": 4188,
      "do_": 4189,
      "forwar": 4190,
      "9999": 4191,
      "totalĠ": 4192,
      "TrueĠifĠ": 4193,
      "Specifi": 4194,
      "\"ĊĠĠĠĠĠĠĠĠ": 4195,
      "isĊĠĠĠĠĠĠĠĠ": 4196,
      "whatĠ": 4197,
      "operator": 4198,
      ".set": 4199,
      ".ĊĊĠĠĠĠReturnsĊĠĠĠĠ-------ĊĠĠĠĠ": 4200,
      "ĊĠĠĠĠĠĠĠĠifĠself.": 4201,
      "\"\"\"ReturnsĠaĠ": 4202,
      "ĊĠĠĠĠĠĠĠĠ:raise": 4203,
      "repr": 4204,
      "s_by_": 4205,
      "gest": 4206,
      "aĠgivenĠ": 4207,
      "aĠsingleĠ": 4208,
      ":ĊĠĠĠĠĠĠĠĠraiseĠ": 4209,
      "Diction": 4210,
      "ET.SubElement(": 4211,
      "ME": 4212,
      "process_": 4213,
      "(osid.id.Id):ĠtheĠ``Id``Ġ": 4214,
      "mut": 4215,
      "finish": 4216,
      "active": 4217,
      "recurs": 4218,
      "LAN": 4219,
      "migr": 4220,
      "added": 4221,
      "relativeĠ": 4222,
      "vectorĠ": 4223,
      ":Ċĉĉĉ": 4224,
      "hit": 4225,
      ",Ġstr": 4226,
      "Ġ=ĠTrue": 4227,
      "':'": 4228,
      "name=": 4229,
      "initializ": 4230,
      ":00": 4231,
      "Task": 4232,
      "ĊĠĠĠĠ\"\"\"ĊĊĠĠĠĠ": 4233,
      "\"\"\"ReturnĠaĠ": 4234,
      "popul": 4235,
      "(data": 4236,
      "Text": 4237,
      ",ĠwhichĠ": 4238,
      "attr(self,Ġ": 4239,
      "itude": 4240,
      "Work": 4241,
      "SP": 4242,
      "result.": 4243,
      "Admin": 4244,
      ")čĊĠĠĠĠĠĠĠĠ": 4245,
      "Retriev": 4246,
      "argumentsĠ": 4247,
      "PermissionDeniedĠ-ĠauthorizationĠfailureĊĠĠĠĠĠĠĠĠ*compliance:ĠmandatoryĠ--ĠThisĠmethodĠmustĠbeĠimplemented.*": 4248,
      "appropri": 4249,
      "/api/": 4250,
      "CE": 4251,
      "prom": 4252,
      "correctĠ": 4253,
      "possibleĠ": 4254,
      "accord": 4255,
      "ps": 4256,
      "pleĠ": 4257,
      "you": 4258,
      "-1,Ġ": 4259,
      ">ĊĠĠĠĠ": 4260,
      "motif": 4261,
      ".ĊĠĠĠĠĠĠĠĠĠĠĠĠĊĊĠĠĠĠ:typeĠ": 4262,
      "buffer": 4263,
      "measure": 4264,
      "after": 4265,
      "hydpy.": 4266,
      "(url": 4267,
      "verif": 4268,
      "Min": 4269,
      "copyĠ": 4270,
      "s':Ġ[": 4271,
      "YouĠcanĠ": 4272,
      "total_": 4273,
      "optim": 4274,
      "fron": 4275,
      "whenĠtheĠ": 4276,
      "ilar": 4277,
      "edge": 4278,
      "polic": 4279,
      "geom": 4280,
      "Function": 4281,
      "push": 4282,
      "remoteĠ": 4283,
      "MakeĠ": 4284,
      "3]": 4285,
      ")Ġ>Ġ": 4286,
      "objectsĠ": 4287,
      "osid_object": 4288,
      "part_": 4289,
      "_in": 4290,
      "b.": 4291,
      "orĠmoreĠ": 4292,
      "und_": 4293,
      "fac": 4294,
      "type=": 4295,
      "dictĠ=Ġ": 4296,
      "@return:Ġ": 4297,
      "Over": 4298,
      "bro": 4299,
      "profile": 4300,
      "_sample": 4301,
      "createĠaĠ": 4302,
      "Exec": 4303,
      "actualĠ": 4304,
      "\"\"\"P": 4305,
      "rot": 4306,
      "):Ċĉĉ": 4307,
      "parametersĠ": 4308,
      "ability": 4309,
      "Av": 4310,
      "Block": 4311,
      "alpha": 4312,
      "SC": 4313,
      "enceĠ": 4314,
      "viaĠ": 4315,
      ".is_": 4316,
      "extr": 4317,
      "ize_": 4318,
      ".ĊĊĠĠĠĠĠĠĠĠTheĠ": 4319,
      "response_": 4320,
      "extract": 4321,
      "disc": 4322,
      "byteĠ": 4323,
      "famil": 4324,
      "name_": 4325,
      "'ĠandĠ": 4326,
      "config_": 4327,
      "indent": 4328,
      "useĠtheĠ": 4329,
      ".ĠIfĠtheĠ": 4330,
      "NoneĊĠĠĠĠĠĠĠĠ": 4331,
      "super(": 4332,
      "),": 4333,
      "obj:`": 4334,
      "ĠisĠaĠ": 4335,
      "temper": 4336,
      "refresh": 4337,
      "HO": 4338,
      "calc_": 4339,
      "\"\"\"ReturnsĠtheĠ": 4340,
      "FieldĠ": 4341,
      "iteĠ": 4342,
      "asset": 4343,
      "erĠtoĠ": 4344,
      "EachĠ": 4345,
      "cook": 4346,
      "start,Ġ": 4347,
      "\",ĊĠĠĠĠĠĠĠĠ": 4348,
      "returnĠaĠ": 4349,
      "queueĠ": 4350,
      "))ĊĠĠĠĠĠĠĠĠreturnĠ": 4351,
      "s',Ġ'": 4352,
      "as.": 4353,
      "reverse": 4354,
      "Tem": 4355,
      ":ĊĠĠĠĠĠĠĠĠĠĠĠĠĠĠĠĠself.": 4356,
      "Search": 4357,
      "Configuration": 4358,
      "ptedĠ": 4359,
      "value.": 4360,
      "prec": 4361,
      "02": 4362,
      "Sign": 4363,
      "ng": 4364,
      "wat": 4365,
      "backgro": 4366,
      "iterable": 4367,
      "frequen": 4368,
      "MethodĠ": 4369,
      "Multi": 4370,
      "stit": 4371,
      "dir(": 4372,
      "product": 4373,
      "NAME": 4374,
      "stub": 4375,
      "OptionalĠ": 4376,
      "edit": 4377,
      ":Ġ(optional": 4378,
      "7.": 4379,
      "Can": 4380,
      "abov": 4381,
      ")ĠisĠ": 4382,
      "transit": 4383,
      ":math:`": 4384,
      "VAL": 4385,
      "ide": 4386,
      "ĊĠĠĠĠtheĠ": 4387,
      "le.": 4388,
      "Ġ=Ġ_": 4389,
      "iso": 4390,
      "edĠinĠ": 4391,
      "_id=": 4392,
      "atesĠtheĠ": 4393,
      "lot": 4394,
      "2.0": 4395,
      "lineĠinĠ": 4396,
      "additionalĠ": 4397,
      "key_": 4398,
      "generate_": 4399,
      "comparis": 4400,
      "cept": 4401,
      "operationĠ": 4402,
      "(ĊĠĠĠĠĠĠĠĠĠĠĠĠĠĠĠĠĠĠĠĠ": 4403,
      "dbs": 4404,
      "callbackĠ": 4405,
      "(m": 4406,
      "FO": 4407,
      ",Ġself": 4408,
      "plt.": 4409,
      "doĠnotĠ": 4410,
      "successful": 4411,
      "pos": 4412,
      "pose": 4413,
      "Sequence": 4414,
      "ant_": 4415,
      "site": 4416,
      ",ĊĠĠĠĠĠĠĠĠĠĠĠĠĠĠĠĠĠ": 4417,
      "i.e.Ġ": 4418,
      "route": 4419,
      "theĊĠĠĠĠĠĠĠĠĠĠĠĠĠĠĠĠ": 4420,
      "parser.": 4421,
      "release": 4422,
      "threshold": 4423,
      "asci": 4424,
      "':Ġ[": 4425,
      "andĊĠĠĠĠĠĠĠĠ": 4426,
      "lack": 4427,
      "manyĠ": 4428,
      "MustĠ": 4429,
      "Pl": 4430,
      "gt": 4431,
      "STĠ": 4432,
      "GivenĠ": 4433,
      "-likeĠ": 4434,
      "System": 4435,
      "gu": 4436,
      "},ĊĠĠĠĠĠĠĠĠ": 4437,
      "ofĠthisĠ": 4438,
      "):ĊĠĠĠĠĠĠĠĠ'''ĊĠĠĠĠĠĠĠĠ": 4439,
      "generatedĠ": 4440,
      "RemoveĠ": 4441,
      "dumps(": 4442,
      "-01": 4443,
      "cw": 4444,
      "cd": 4445,
      "==Ġ0": 4446,
      "PATH": 4447,
      "unch": 4448,
      "ibr": 4449,
      "DataĠ": 4450,
      "resolv": 4451,
      "Command": 4452,
      "round": 4453,
      "upload": 4454,
      "tryĠ": 4455,
      "compi": 4456,
      "%s'Ġ%Ġ": 4457,
      "CS": 4458,
      ".ĊĠĠĠĠĠĠĠĠ\"\"\"ĊĠĠĠĠĠĠĠĠifĠ": 4459,
      "Cur": 4460,
      "Window": 4461,
      "params.": 4462,
      "path(": 4463,
      "provider": 4464,
      "\"ĠinĠ": 4465,
      "ĊĠĠĠĠĠĠĠĠ@paramĠ": 4466,
      "ĊĠĠĠĠĠĠĠĠĠĠĠĠĠĠ": 4467,
      "namedĠ": 4468,
      ".r": 4469,
      "Doc": 4470,
      "x:Ġ": 4471,
      "digit": 4472,
      "resultsĠ": 4473,
      "startingĠ": 4474,
      "Status": 4475,
      "startswith('": 4476,
      "seriesĠ": 4477,
      "overrid": 4478,
      "']ĊĠĠĠĠĠĠĠĠ": 4479,
      "':ĠTrue": 4480,
      "render": 4481,
      "legal": 4482,
      "protocol": 4483,
      "features": 4484,
      ":obj:`": 4485,
      "[n": 4486,
      "AllĠ": 4487,
      "left": 4488,
      "Grade": 4489,
      "ignore": 4490,
      "():ĊĠĠĠĠĠĠĠĠĠĠĠĠ": 4491,
      "Rel": 4492,
      "tri": 4493,
      "()ĊĊĠĠĠĠ": 4494,
      "',ĠNone": 4495,
      "_by_": 4496,
      "Raises:ĊĠĠĠĠĠĠĠĠĠĠĠĠ": 4497,
      "notĠfoundĊĠĠĠĠĠĠĠĠraise:ĠĠNullArgumentĠ-Ġ``": 4498,
      "ĊĊ": 4499,
      "ĊĠĠĠĠĠĠĠĠreturn:Ġ(osid.": 4500,
      "s.ĊĠĠĠĠĠĠĠĠ\"\"\"ĊĠĠĠĠĠĠĠĠ": 4501,
      "Ġ=ĠFalse": 4502,
      "id=": 4503,
      "notĠself.": 4504,
      "\"\"\"ĊĠĠĠĠĠĠĠĠ#ĠImplementedĠfromĠtemplateĠ": 4505,
      "`ĊĠĠĠĠĠĠĠĠĠĠĠĠ": 4506,
      ")ĊĠĠĠĠ>>>Ġ": 4507,
      "shor": 4508,
      "ThisĠfunctionĠ": 4509,
      "unicodeĠ": 4510,
      "LI": 4511,
      "Sup": 4512,
      "Ġ|Ġ": 4513,
      "stant": 4514,
      "meanĠ": 4515,
      "ationĠofĠtheĠ": 4516,
      "thereĠisĠ": 4517,
      "quote": 4518,
      "esĠtoĠ": 4519,
      "group_": 4520,
      ".__name__": 4521,
      "Column": 4522,
      ".\"\"\"": 4523,
      "6,Ġ": 4524,
      ":ĊĠĠĠĠĠĠĠĠĠĠĠĠĠĠĠĠĠĠĠĠĠĠĠĠĠĠĠĠ": 4525,
      "}/": 4526,
      "leep": 4527,
      "options.": 4528,
      "outputĠ=Ġ": 4529,
      "order_": 4530,
      "summ": 4531,
      "OPTIONAL": 4532,
      "Sim": 4533,
      "000": 4534,
      "control": 4535,
      "FOR": 4536,
      "]ĊĠĠĠĠĠĠĠĠĠĠĠĠĠĠĠĠ": 4537,
      "dl": 4538,
      "çļ": 4539,
      "inn": 4540,
      "Entry": 4541,
      "os.path.is": 4542,
      "mappingĠ": 4543,
      "çļĦ": 4544,
      "%s.": 4545,
      "hal": 4546,
      "mĠ=Ġ": 4547,
      "lineĠ=Ġ": 4548,
      "sĠ=Ġself._": 4549,
      "set,Ġ": 4550,
      "=None):ĊĠĠĠĠ\"\"\"ĊĠĠĠĠ": 4551,
      "Proces": 4552,
      "AP": 4553,
      "ĊĊĠĠĠĠĠĠĠĠforĠ": 4554,
      "=None):ĊĠĠĠĠ\"\"\"": 4555,
      "processĠ": 4556,
      "correct": 4557,
      "tagĠ": 4558,
      "train": 4559,
      "clear": 4560,
      "alignment": 4561,
      "enci": 4562,
      "handlerĠ": 4563,
      "center": 4564,
      "knownĠ": 4565,
      ":Ġ:class:`": 4566,
      "ride": 4567,
      "items()": 4568,
      "lookup_session": 4569,
      "Field": 4570,
      "semb": 4571,
      "signature": 4572,
      "filename,Ġ": 4573,
      "effici": 4574,
      ")ĊĊĠĠĠĠĠĠĠĠĠĠĠĠĠĠĠĠ": 4575,
      "card": 4576,
      "Stream": 4577,
      "cannotĠbeĠ": 4578,
      "Fl": 4579,
      "der_": 4580,
      "real": 4581,
      "threadĠ": 4582,
      "ular": 4583,
      "payloadĠ": 4584,
      "root_": 4585,
      "tenĠ": 4586,
      "init_": 4587,
      "DictionaryĠ": 4588,
      "BU": 4589,
      "wereĠ": 4590,
      "along": 4591,
      ":ĊĠĠĠĠĠĠĠĠĠĠĠĠĠĠĠĠraiseĠ": 4592,
      "End": 4593,
      "Validation": 4594,
      "uster": 4595,
      "itemĠinĠ": 4596,
      "statement": 4597,
      "Ġ+Ġ1": 4598,
      "http_": 4599,
      "strict": 4600,
      "s'Ġ": 4601,
      "us_": 4602,
      "ĠĠĠĠĠĠĠĠĠĠĠĠ": 4603,
      "diag": 4604,
      ".ĊĠĠĠĠĠĠĠĠ:typeĠ": 4605,
      "1.0,Ġ": 4606,
      "haveĠaĠ": 4607,
      "client_": 4608,
      "show_": 4609,
      "Filter": 4610,
      "')ĊĊĠĠĠĠ": 4611,
      "(cls,Ġ": 4612,
      "store_": 4613,
      "Comput": 4614,
      "\"\"\"ReturnĠtheĠ": 4615,
      "Il": 4616,
      "time(": 4617,
      "ip_": 4618,
      "ave": 4619,
      "dictionaryĠofĠ": 4620,
      "bg": 4621,
      "content_type": 4622,
      "sĠinĠaĠ": 4623,
      "missing": 4624,
      "FileĠ": 4625,
      "\"\"\"AddĠ": 4626,
      ",ĊĠĠĠĠĠĠĠĠĠĠĠĠĠĠĠĠĠĠĠĠĠĠĠĠĠĠĠĠĠĠĠĠĠĠĠĠĠĠĠĠĠ": 4627,
      "cures": 4628,
      "save_": 4629,
      "json.load": 4630,
      "gerĠ": 4631,
      "ĊĊĠĠĠĠĠĠĠĠ\"\"\"ĊĠĠĠĠĠĠĠĠ": 4632,
      "alwaysĠ": 4633,
      "s}": 4634,
      "ely": 4635,
      "ĊĊĠĠĠĠĠĠĠĠArgs:ĊĠĠĠĠĠĠĠĠĠĠĠĠ": 4636,
      "outĠ=Ġ": 4637,
      "scipy.": 4638,
      "mes": 4639,
      "endswith": 4640,
      "valueĠforĠ": 4641,
      "fill": 4642,
      "KeyĠ": 4643,
      "exampleĠ": 4644,
      ",ĊĠĠĠĠĠĠĠĠĠĠĠĠĠĠĠĠĠĠĠĠĠĠĠĠĠĠĠĠĠ": 4645,
      "activeĠ": 4646,
      "Proxy": 4647,
      "ystems": 4648,
      "Avail": 4649,
      "sampl": 4650,
      ",Ġ(": 4651,
      "descript": 4652,
      "propertyĠ": 4653,
      "****************": 4654,
      "s-": 4655,
      "mach": 4656,
      "':Ġself.": 4657,
      "':ĠFalse": 4658,
      "lambda": 4659,
      "\\x": 4660,
      "rĠ=Ġ": 4661,
      "íĺ": 4662,
      "ereĠtheĠ": 4663,
      "doub": 4664,
      "requestedĠ": 4665,
      "osid.resource.": 4666,
      ":ĊĊĠĠĠĠĠĠĠĠ>>>Ġ": 4667,
      "Fir": 4668,
      "secures": 4669,
      "usedĠforĠ": 4670,
      "display": 4671,
      "securesystems": 4672,
      "],ĊĠĠĠĠĠĠĠĠ": 4673,
      "md": 4674,
      "data[": 4675,
      "containsĠ": 4676,
      "):ĊĠĠĠĠ'''": 4677,
      "FunctionĠ": 4678,
      "):ĊĠĠĠĠĠĠĠĠĠĠĠĠraiseĠerrors.": 4679,
      "previousĠ": 4680,
      "Ã£": 4681,
      "ĊĊĠĠĠĠĠĠĠĠ\"\"\"ĊĠĠĠĠĠĠĠĠ#ĠImplementedĠfromĠtemplateĠ": 4682,
      "driver": 4683,
      "False,Ġ": 4684,
      "s:ĊĠĠĠĠ": 4685,
      "GER": 4686,
      "čĊĠĠĠĠĠĠĠĠĠĠĠĠĠĠĠĠĠĠĠĠ": 4687,
      ",ĠseeĠ": 4688,
      "represen": 4689,
      "etc": 4690,
      "cursor": 4691,
      "_source": 4692,
      "Environ": 4693,
      ")[0]": 4694,
      "authĠ": 4695,
      "package": 4696,
      "Scal": 4697,
      "UP": 4698,
      "pyh": 4699,
      "assignment": 4700,
      "properties": 4701,
      "36": 4702,
      "So": 4703,
      "))ĊĊĠĠĠĠ": 4704,
      "haveĠtheĠ": 4705,
      "s),Ġ": 4706,
      "ĊĠĠĠĠ:typeĠ": 4707,
      "begin": 4708,
      "whichĠtheĠ": 4709,
      "Cluster": 4710,
      "')ĊĠĠĠĠĠĠĠĠĠĠĠĠĠĠĠĠ": 4711,
      "key=": 4712,
      "etermin": 4713,
      "Mar": 4714,
      ")ĊĠĠĠĠexceptĠ": 4715,
      "s.ĠIfĠ": 4716,
      "_idĠ=Ġ": 4717,
      "www.": 4718,
      "'Ġ(type:Ġ": 4719,
      "(i": 4720,
      "constraint": 4721,
      "umĠ": 4722,
      "neighbor": 4723,
      "pd.": 4724,
      "s`Ġ": 4725,
      "argsĠ=Ġ": 4726,
      "|ĊĠĠĠĠĠĠĠĠ|": 4727,
      "Ag": 4728,
      "[2]": 4729,
      "ĊĊĠĠĠĠĠĠĠĠ\"\"\"ĊĠĠĠĠĠĠĠĠifĠ": 4730,
      "configĠ=Ġ": 4731,
      "%s'Ġ%Ġ(": 4732,
      "handle_": 4733,
      "rank": 4734,
      "vertice": 4735,
      ":attr": 4736,
      "doneĠ": 4737,
      "whereĠtheĠ": 4738,
      "Error,Ġ": 4739,
      "itĠwillĠ": 4740,
      "-----": 4741,
      "symbol": 4742,
      "informationĠaboutĠ": 4743,
      "(t": 4744,
      "colle": 4745,
      "ĠisĠNone:ĊĠĠĠĠĠĠĠĠĠĠĠĠ": 4746,
      "|ĊĊĠĠĠĠ": 4747,
      "ibil": 4748,
      "UpdateĠ": 4749,
      "ExceptionĠasĠe": 4750,
      "lex": 4751,
      "s[1]": 4752,
      "automaticallyĠ": 4753,
      "sure": 4754,
      "selection": 4755,
      "):ĠTheĠ": 4756,
      "Build": 4757,
      "Cloud": 4758,
      "Illegal": 4759,
      "od": 4760,
      "s,ĠandĠ": 4761,
      "subprocess.": 4762,
      "pipe": 4763,
      "filte": 4764,
      "ĊĠĠĠĠĠĠĠĠ:paramĠstrĠ": 4765,
      "content_": 4766,
      "Dire": 4767,
      "Chang": 4768,
      "slug": 4769,
      "Match": 4770,
      "ision": 4771,
      "%s\"Ġ%Ġ(": 4772,
      "failedĠtoĠ": 4773,
      "LookupSession": 4774,
      "index,Ġ": 4775,
      "save": 4776,
      "ĊĠĠĠĠelifĠ": 4777,
      "extern": 4778,
      "abs(": 4779,
      "cip": 4780,
      "cfg": 4781,
      "suppliedĠ": 4782,
      "Otherwise": 4783,
      "%dĠ": 4784,
      "\"\"\"CreateĠaĠ": 4785,
      "=0,Ġ": 4786,
      "sĊĠĠĠĠĠĠĠĠĠĠĠĠĠĠĠĠ": 4787,
      "ree": 4788,
      "tupleĠofĠ": 4789,
      "OPTIONALĠ-Ġ": 4790,
      "Job": 4791,
      "parsedĠ": 4792,
      "(optional": 4793,
      "FF": 4794,
      "Tup": 4795,
      "s``Ġ": 4796,
      "word_": 4797,
      "install": 4798,
      "ĠisĠnotĠNone:ĊĠĠĠĠĠĠĠĠĠĠĠĠ": 4799,
      "register_": 4800,
      "Author": 4801,
      "\\ĊĠĠĠĠĠĠĠĠĠĠĠĠĠĠĠĠ": 4802,
      "ife": 4803,
      "()ĊĠĠĠĠĠĠĠĠ>>>Ġ": 4804,
      "256": 4805,
      "random": 4806,
      ".ĊĊĠĠĠĠĠĠĠĠ:return:Ġ": 4807,
      "request_": 4808,
      "maximum": 4809,
      "youĠcanĠ": 4810,
      "individ": 4811,
      "čĊčĊĠĠĠĠĠĠĠĠ#ĠOPTIONALĠ-Ġ": 4812,
      "compa": 4813,
      "s=[": 4814,
      "componentĠ": 4815,
      ".ĊĊĠĠĠĠĠĠĠĠReturnsĊĠĠĠĠĠĠĠĠ-------ĊĠĠĠĠĠĠĠĠ": 4816,
      "Sec": 4817,
      "car": 4818,
      "dyn": 4819,
      "error(": 4820,
      "db.": 4821,
      "Count": 4822,
      "sorted(": 4823,
      "CanĠ": 4824,
      "ativ": 4825,
      "('.": 4826,
      "path_": 4827,
      "command_": 4828,
      "clou": 4829,
      ",ĊĠĠĠĠĠĠĠĠĠĠĠĠĠĠĠĠĠĠĠĠĠĠĠĠĠĠĠĠĠĠĠĠĠĠĠĠ": 4830,
      "SQL": 4831,
      "effect": 4832,
      "periment": 4833,
      "YĠ": 4834,
      "\\d": 4835,
      "or.": 4836,
      "kernel": 4837,
      "greaterĠthanĠ": 4838,
      "consist": 4839,
      "X_": 4840,
      "bĠ": 4841,
      "pag": 4842,
      "rightĠ": 4843,
      "returnĠFalse": 4844,
      "atĠleastĠ": 4845,
      "accountĠ": 4846,
      "ible_": 4847,
      "Ġ==Ġ0": 4848,
      "Regist": 4849,
      "privateĠ": 4850,
      "Y_": 4851,
      "plan": 4852,
      "Extra": 4853,
      "wait_": 4854,
      "':ĊĠĠĠĠĠĠĠĠĠĠĠĠĠĠĠĠ": 4855,
      "Fe": 4856,
      "sĠ+=Ġ": 4857,
      "aveĠ": 4858,
      "Sele": 4859,
      "TS": 4860,
      "djang": 4861,
      "pad": 4862,
      "wal": 4863,
      "report": 4864,
      "sĠ-Ġ": 4865,
      "format_": 4866,
      ".ĠDefaultsĠtoĠ": 4867,
      "exceptĠKeyError": 4868,
      "Auto": 4869,
      "ĊĠĠĠĠĠĠĠĠĠĠĠĠelifĠ": 4870,
      "()ĊĠĠĠĠĠĠĠĠreturnĠ": 4871,
      "iterableĠ": 4872,
      "valid_": 4873,
      "size=": 4874,
      ":attr:`": 4875,
      "nĠ=Ġ": 4876,
      "s']Ġ=Ġ": 4877,
      "æĸ": 4878,
      "no_": 4879,
      "tempor": 4880,
      "chema": 4881,
      "dayĠ": 4882,
      "basedĠonĠtheĠ": 4883,
      "workflow": 4884,
      "DEL": 4885,
      "moreĠinformation": 4886,
      "=ĠTrue": 4887,
      "ĊĠĠĠĠĠĠĠĠĠĠĠĠĠĠĠĠelse:ĊĠĠĠĠĠĠĠĠĠĠĠĠĠĠĠĠĠĠĠĠ": 4888,
      ".ĊĠĠĠĠĠĠĠĠ:return:Ġ": 4889,
      "Part": 4890,
      "ORD": 4891,
      "systemĠ": 4892,
      "ementĠ": 4893,
      "backĠ": 4894,
      "globalĠ": 4895,
      "db_": 4896,
      "Rece": 4897,
      "max(": 4898,
      ",ĊĠĠĠĠĠĠĠĠĠĠĠĠĠĠĠĠĠĠĠĠĠĠ": 4899,
      "bj": 4900,
      "bot": 4901,
      "partic": 4902,
      "ogram": 4903,
      "charg": 4904,
      "Ġ(str": 4905,
      "AutoĠ": 4906,
      "NoteĠthatĠ": 4907,
      ".group": 4908,
      "utt": 4909,
      "Error:ĠNetwork": 4910,
      "ERROR": 4911,
      "(_": 4912,
      ">`": 4913,
      "aro": 4914,
      "constru": 4915,
      "six.": 4916,
      "havi": 4917,
      "gment": 4918,
      "peim": 4919,
      "structureĠ": 4920,
      ")Ġ==Ġ0": 4921,
      "pyhpeim": 4922,
      "Dec": 4923,
      "py_": 4924,
      "u\"": 4925,
      "hostĠ": 4926,
      "remove(": 4927,
      "post_": 4928,
      "openĠ": 4929,
      "setĠtheĠ": 4930,
      ")ĊĊĠĠĠĠĠĠĠĠĠĠĠĠ#Ġ": 4931,
      "~~~~": 4932,
      "):ĊĠĠĠĠĠĠĠĠ#Ġ": 4933,
      "disk": 4934,
      "`None": 4935,
      "ĊĠĠĠĠĠĠĠĠ:returns:Ġ": 4936,
      ".ĊĊĠĠĠĠArgs:ĊĠĠĠĠĠĠĠĠ": 4937,
      "()``ĠisĠ``true": 4938,
      "pyhpeimc.": 4939,
      "alt": 4940,
      "Reposit": 4941,
      "minimumĠ": 4942,
      "packet": 4943,
      "accessĠ": 4944,
      "``ĊĠĠĠĠĠĠĠĠraise:ĠĠNullArgumentĠ-Ġ``": 4945,
      "exclude": 4946,
      "arm": 4947,
      "asĠanĠ": 4948,
      "ql": 4949,
      "codingĠ": 4950,
      "blockĠ": 4951,
      "datetimeĠ": 4952,
      "\"/": 4953,
      "',ĊĠĠĠĠĠĠĠĠĠĠĠĠĠĠĠĠ'": 4954,
      "45": 4955,
      "\\ĊĠĠĠĠĠĠĠĠ": 4956,
      "decl": 4957,
      "edĊĠĠĠĠĠĠĠĠ": 4958,
      "dot": 4959,
      ":py:class:`": 4960,
      "Off": 4961,
      "pur": 4962,
      "ssĠ": 4963,
      "':Ġstr(": 4964,
      "string,Ġ": 4965,
      "`ĠorĠ": 4966,
      "Defin": 4967,
      "Import": 4968,
      "prepare_": 4969,
      "('-": 4970,
      "Referen": 4971,
      "s[:": 4972,
      "states.": 4973,
      "s.get(": 4974,
      "leftĠ": 4975,
      "Dyn": 4976,
      "f,Ġ": 4977,
      "dĠinĠ": 4978,
      "dered": 4979,
      "tom": 4980,
      ")Ġ!=Ġ": 4981,
      "statistic": 4982,
      "kind": 4983,
      "s,": 4984,
      "selfĠ": 4985,
      "itiesĠ": 4986,
      "Indi": 4987,
      "applicationĠ": 4988,
      "_count": 4989,
      "bi": 4990,
      "mightĠ": 4991,
      "replic": 4992,
      "ctype": 4993,
      "relatedĠ": 4994,
      "decorator": 4995,
      "same": 4996,
      "s(self):ĊĠĠĠĠĠĠĠĠ\"\"\"": 4997,
      "}\".format(": 4998,
      "eder": 4999,
      "']ĊĠĠĠĠ": 5000,
      "lineno": 5001,
      "ax.": 5002,
      "datetime(": 5003,
      "cad": 5004,
      "notification": 5005,
      ")ĠĠ#Ġ": 5006,
      "PC": 5007,
      "With": 5008,
      "sched": 5009,
      "atchĠ": 5010,
      "forĠtheĠgivenĠ": 5011,
      "plotĠ": 5012,
      "ĠisĠtheĠ": 5013,
      "Ġ==Ġ\"": 5014,
      "uld": 5015,
      "e.g.": 5016,
      "blank": 5017,
      "awaitĠ": 5018,
      "gl": 5019,
      "sleep": 5020,
      "Start": 5021,
      "),ĊĠĠĠĠĠĠĠĠ": 5022,
      "sĠ+Ġ": 5023,
      "colĠ": 5024,
      "anĠexistingĠ": 5025,
      "Token": 5026,
      "[0,Ġ": 5027,
      "json.dumps(": 5028,
      "Ca": 5029,
      "sv": 5030,
      "logical": 5031,
      "cas": 5032,
      "s):ĊĠĠĠĠĠĠĠĠĠĠĠĠ": 5033,
      "applyĠ": 5034,
      "settingĠ": 5035,
      "actĠ": 5036,
      "Us": 5037,
      "}ĊĊĠĠĠĠĠĠĠĠ": 5038,
      "ĠĠĠĠĠĠĠĠĠĠĠĠĠ": 5039,
      "Ġ=Ġ(": 5040,
      "object_": 5041,
      "fileĠtoĠ": 5042,
      "my_osid_object": 5043,
      "La": 5044,
      "b'": 5045,
      "Exception(\"": 5046,
      "insteadĠofĠ": 5047,
      "dbsException": 5048,
      "+1": 5049,
      "VĠ": 5050,
      "pot": 5051,
      "path:Ġ": 5052,
      "item.": 5053,
      "unknown": 5054,
      "2-": 5055,
      "Ed": 5056,
      "gb": 5057,
      "sĠwillĠbeĠ": 5058,
      "class__": 5059,
      "Ta": 5060,
      "cub": 5061,
      "sortedĠ": 5062,
      "edges": 5063,
      "booleanĠ": 5064,
      "::ĊĊĠĠĠĠĠĠĠĠ": 5065,
      "thereĠareĠ": 5066,
      "``ĠisĠ``null``ĊĠĠĠĠĠĠĠĠraise:ĠĠOperationFailedĠ-ĠunableĠtoĠcompleteĠrequestĊĠĠĠĠĠĠĠĠraise:ĠĠPermissionDeniedĠ-ĠauthorizationĠfailureĊĠĠĠĠĠĠĠĠ*compliance:ĠmandatoryĠ--ĠThisĠmethodĠmustĠbeĠimplemented.*": 5067,
      "(bool": 5068,
      ".0": 5069,
      "MAT": 5070,
      "pid": 5071,
      ",ĠsoĠ": 5072,
      "inĠthisĠ": 5073,
      "valuesĠareĠ": 5074,
      ")ĊĠĠĠĠĠĠ": 5075,
      "countĠ=Ġ": 5076,
      "geo": 5077,
      "passĠ": 5078,
      ".ĠTh": 5079,
      "featureĠ": 5080,
      "'Ġ+Ġstr(": 5081,
      "s.get('": 5082,
      "DefaultĠisĠ": 5083,
      "``,Ġ``": 5084,
      "23": 5085,
      "ByĠ": 5086,
      "elength": 5087,
      "extra_": 5088,
      "Connection": 5089,
      "c,Ġ": 5090,
      "will": 5091,
      "error_": 5092,
      "_metadata": 5093,
      "desiredĠ": 5094,
      "q_": 5095,
      "ative_": 5096,
      "consum": 5097,
      "Unit": 5098,
      "indices": 5099,
      ",'": 5100,
      "nu": 5101,
      "isĠNone:ĊĠĠĠĠĠĠĠĠ": 5102,
      "-like": 5103,
      "{{": 5104,
      "ĊĠĠĠĠĠĠĠĠ#": 5105,
      ")ĊĠĠĠĠĠĠĠĠifĠnotĠ": 5106,
      "()ĊĠĠĠĠĠĠĠĠifĠ": 5107,
      "view_": 5108,
      "organ": 5109,
      "dependenci": 5110,
      "untilĠ": 5111,
      ".update(": 5112,
      "apping": 5113,
      "ctĠtheĠ": 5114,
      "Identifier": 5115,
      "attempt": 5116,
      "event.": 5117,
      "convert_": 5118,
      "zip(": 5119,
      "appropriateĠ": 5120,
      "'reĠ": 5121,
      "-0": 5122,
      "saf": 5123,
      "_name:Ġ": 5124,
      "Output": 5125,
      "lint": 5126,
      "test_": 5127,
      "name']": 5128,
      "ptionĠ": 5129,
      "timeoutĠ": 5130,
      "span": 5131,
      "util.": 5132,
      "learn": 5133,
      "[j": 5134,
      "eri": 5135,
      "startĠ=Ġ": 5136,
      "takeĠ": 5137,
      "ER_": 5138,
      "cache.": 5139,
      "asynchron": 5140,
      "}ĊĠĠĠĠ": 5141,
      "stim": 5142,
      "\"\"\"ĊĊĠĠĠĠ": 5143,
      "instance.": 5144,
      "overlap": 5145,
      "`,Ġ`": 5146,
      "light": 5147,
      "aggreg": 5148,
      "cry": 5149,
      "forĠiĠinĠrange(": 5150,
      ",ĊĠĠĠĠĠĠĠĠĠĠĠĠĠĠĠĠ\"": 5151,
      "try:ĊĠĠĠĠĠĠĠĠĠĠĠĠĠĠĠĠĠĠĠĠ": 5152,
      "parse.": 5153,
      ".close": 5154,
      "ru": 5155,
      "_siz": 5156,
      "alreadyĠexist": 5157,
      "(-": 5158,
      "ĊĠĠĠĠ:": 5159,
      "nameĠandĠ": 5160,
      "LE_": 5161,
      "OK": 5162,
      "rb": 5163,
      "åĲ": 5164,
      "TypeId": 5165,
      "network_": 5166,
      "isĠnotĠNone:čĊĠĠĠĠĠĠĠĠĠĠĠĠ": 5167,
      "LA": 5168,
      "ustom": 5169,
      "('/": 5170,
      "itudeĠ": 5171,
      "Ã£oĠ": 5172,
      "17": 5173,
      "construct": 5174,
      ")ĊĠĠĠĠĠĠĠĠĠĠĠĠ#Ġ": 5175,
      "connectionĠ": 5176,
      "Server": 5177,
      "ä»": 5178,
      "else:ĊĠĠĠĠĠĠĠĠĠĠĠĠĠĠĠĠĠĠĠĠĠĠĠĠ": 5179,
      "ĊĠĠĠĠ\"\"\"ĊĠĠĠĠifĠ": 5180,
      "packageĠ": 5181,
      "(config": 5182,
      "estĠ": 5183,
      ")Ġ>Ġ0": 5184,
      ":ĠstrĊĠĠĠĠĠĠĠĠĠĠĠĠ": 5185,
      "pipel": 5186,
      "AdminSession": 5187,
      "pp": 5188,
      "orĠnotĠ": 5189,
      "``Ġ--Ġ": 5190,
      "s:ĊĊĠĠĠĠĠĠĠĠ": 5191,
      "END": 5192,
      "Handler": 5193,
      "A_": 5194,
      "BO": 5195,
      "åı": 5196,
      "matplot": 5197,
      "random.": 5198,
      "observation": 5199,
      ".g": 5200,
      "ĊĠĠĠĠĠĠĠĠĠĠĠĠĠĠĠĠ}": 5201,
      "':Ġ{'": 5202,
      "appen": 5203,
      "typeĠofĠ": 5204,
      "TimeĠ": 5205,
      "destination": 5206,
      "-=Ġ": 5207,
      "_get_": 5208,
      "Ġaddres": 5209,
      ":Ġ`": 5210,
      "rent": 5211,
      "tuple(": 5212,
      "insert": 5213,
      "bon": 5214,
      "allowĠ": 5215,
      "Arn": 5216,
      "exceptionĠ": 5217,
      "67": 5218,
      "erĠtheĠ": 5219,
      ".ĠItĠ": 5220,
      "sessionĠ": 5221,
      "headers=": 5222,
      "cannotĠ": 5223,
      "255": 5224,
      "(v": 5225,
      "`value": 5226,
      "ence": 5227,
      "def": 5228,
      "prev": 5229,
      "queryĠ=Ġ": 5230,
      "error(\"": 5231,
      "Stor": 5232,
      "matrixĠ": 5233,
      "\\s": 5234,
      "})": 5235,
      "contr": 5236,
      "čĊĠĠĠĠĠĠĠĠ\"\"\"čĊĠĠĠĠĠĠĠĠ": 5237,
      "artic": 5238,
      "je": 5239,
      "projectĠ": 5240,
      "ough": 5241,
      "Store": 5242,
      "'\\n": 5243,
      "fname": 5244,
      "ing,Ġ": 5245,
      "aĠstringĠ": 5246,
      "valueĠofĠtheĠ": 5247,
      "pie": 5248,
      "supportĠ": 5249,
      "UserĠ": 5250,
      "controll": 5251,
      "LOGGER": 5252,
      "':ĊĠĠĠĠĠĠĠĠ": 5253,
      "ryĠ": 5254,
      "orĠ=Ġ": 5255,
      "whichĠtoĠ": 5256,
      "local_": 5257,
      "result_": 5258,
      "domainĠ": 5259,
      "**2": 5260,
      "%s/": 5261,
      "nc": 5262,
      "rĠ": 5263,
      "showĠ": 5264,
      "text,Ġ": 5265,
      "tar": 5266,
      "keysĠ": 5267,
      "Load": 5268,
      "pandas.": 5269,
      "8,Ġ": 5270,
      "Ip": 5271,
      "{ĊĠĠĠĠĠĠĠĠĠĠĠĠĠĠĠĠĠĠĠĠ'": 5272,
      "\"\"\"ĊĊĠĠĠĠĠĠĠĠ": 5273,
      "proxy.": 5274,
      "certa": 5275,
      "controlĠ": 5276,
      "histogram": 5277,
      "ni": 5278,
      "ome_": 5279,
      "result['": 5280,
      "ĊĠĠĠĠĠĠĠĠ#Ġosid.resource.": 5281,
      ",ĊĠĠĠĠĠĠĠĠĠĠĠĠĠĠĠĠĠĠĠĠĠ": 5282,
      "global": 5283,
      "table.": 5284,
      "**kwargs):ĊĠĠĠĠĠĠĠĠ\"\"\"": 5285,
      "BuildĠ": 5286,
      "clus": 5287,
      "antity": 5288,
      "requirement": 5289,
      "extraĠ": 5290,
      "get(": 5291,
      "functionĠisĠ": 5292,
      "match(": 5293,
      "which": 5294,
      "elementsĠ": 5295,
      "[1],Ġ": 5296,
      "saveĠ": 5297,
      "sys.exit": 5298,
      ":return:\"\"\"ĊdefĠ": 5299,
      "equipamen": 5300,
      "YY": 5301,
      "geĠ": 5302,
      "instr": 5303,
      ",ĠaĠ": 5304,
      "alth": 5305,
      "peak": 5306,
      "contact": 5307,
      "oneĠofĠ": 5308,
      "`Ġobject": 5309,
      "sĠofĠaĠ": 5310,
      "useful": 5311,
      ".html": 5312,
      "Back": 5313,
      "Htt": 5314,
      "squ": 5315,
      "importĠ*": 5316,
      "placeh": 5317,
      "method_": 5318,
      "usuallyĠ": 5319,
      "ifyĠ": 5320,
      "\"\"\"ReturnsĠ": 5321,
      "target_": 5322,
      "feder": 5323,
      "wik": 5324,
      "âĢ": 5325,
      "',ĊĠĠĠĠĠĠĠĠĠĠĠĠĠĠĠĠ": 5326,
      "gap": 5327,
      "edĠif": 5328,
      "variant": 5329,
      "ao": 5330,
      "locationĠ": 5331,
      "ĊĠĠĠĠĠĠĠĠ``supports_": 5332,
      "(*args,Ġ**kwargs": 5333,
      "Alig": 5334,
      "HĠ": 5335,
      "utĠ": 5336,
      "v4": 5337,
      "ìŀ": 5338,
      "reason": 5339,
      "int,Ġ": 5340,
      ".ĊĊĠĠĠĠĠĠĠĠIfĠ": 5341,
      "ACK": 5342,
      "IAM": 5343,
      "ase_": 5344,
      "cĠinĠ": 5345,
      "esca": 5346,
      ".ĊĊĠĠĠĠĠĠĠĠreturn:Ġ(osid.": 5347,
      "actionĠ": 5348,
      "source_": 5349,
      ")čĊĠĠĠĠ": 5350,
      "ĠĠĠĠĠĠĠĠĠĠ": 5351,
      ",Ġd": 5352,
      "asser": 5353,
      "week": 5354,
      "al.": 5355,
      "url_": 5356,
      "Error:ĠNetworkapiĠ": 5357,
      "[-": 5358,
      "ĊĠĠĠĠĠĠĠĠĠĠĠĠtheĠ": 5359,
      "\"\"\"Gener": 5360,
      "import_": 5361,
      "similar": 5362,
      "(float": 5363,
      "cyĠ": 5364,
      "equi": 5365,
      "resĠ=Ġ": 5366,
      "context_": 5367,
      "images": 5368,
      "``ĠtoĠ": 5369,
      "virt": 5370,
      "valueĠpair": 5371,
      "sender": 5372,
      "spectr": 5373,
      "slice": 5374,
      "geomet": 5375,
      "Lif": 5376,
      "pan": 5377,
      "byĠdefault": 5378,
      "worker": 5379,
      "_pathĠ=Ġ": 5380,
      "convert": 5381,
      "schemaĠ": 5382,
      "enabled": 5383,
      "compute": 5384,
      "draw": 5385,
      "s).": 5386,
      "andĠnotĠ": 5387,
      "_path,Ġ": 5388,
      "':ĠFalse,ĊĠĠĠĠĠĠĠĠĠĠĠĠ'": 5389,
      "(**": 5390,
      "_column": 5391,
      "olĠ": 5392,
      "ĊĠĠĠĠĠĠĠĠĊĠĠĠĠĠĠĠĠ": 5393,
      "inver": 5394,
      "agent": 5395,
      "ĊĠĠĠĠĠĠĠĠĠĠĠĠĠĠĠĠĠĠĠĠĠĠĠĠĠĠĠĠĠ": 5396,
      "mast": 5397,
      "when": 5398,
      "onĠaĠ": 5399,
      "specified,Ġ": 5400,
      "streamĠ": 5401,
      "access": 5402,
      "v1/": 5403,
      "click.": 5404,
      ",Ġself).": 5405,
      "werĠ": 5406,
      "valueĠtoĠ": 5407,
      "s:ĊĠĠĠĠĠĠĠĠĠĠĠĠĠĠĠĠĠĠĠĠ": 5408,
      "includingĠ": 5409,
      "coordinatesĠ": 5410,
      "Error:ĠNetworkapiĠfailedĠtoĠ": 5411,
      "Zone": 5412,
      "[name": 5413,
      ",Ġself._": 5414,
      "leaseĠ": 5415,
      "\"\"\"C": 5416,
      "ctx": 5417,
      "sentĠ": 5418,
      "data=data,Ġ": 5419,
      ".ĊĊĠĠĠĠĠĠĠĠĠĠĠĠ": 5420,
      "roleĠ": 5421,
      "backup": 5422,
      "\\n\"": 5423,
      "SetsĠtheĠ": 5424,
      "Service": 5425,
      "loaded": 5426,
      "################################": 5427,
      "Ċĉĉĉĉĉ'": 5428,
      "seed": 5429,
      "evenĠ": 5430,
      "cc": 5431,
      "font": 5432,
      "rf": 5433,
      "styleĠ": 5434,
      "ficienc": 5435,
      "flatten": 5436,
      "repl": 5437,
      "candi": 5438,
      "internalĠ": 5439,
      "L_": 5440,
      "ìĦ": 5441,
      "ĊĠĠĠĠĠĠĠĠexceptĠ": 5442,
      "categor": 5443,
      "existĠ": 5444,
      "paign": 5445,
      "ause": 5446,
      "zeroĠ": 5447,
      "Rang": 5448,
      "oct": 5449,
      "res.": 5450,
      "instance,Ġ": 5451,
      "ATION": 5452,
      "initialĠ": 5453,
      "simpleĠ": 5454,
      "Collection": 5455,
      "instead": 5456,
      "Align": 5457,
      "'ĊĠĠĠĠĠĠĠĠĠĠĠĠĠĠĠĠ": 5458,
      ">,ĊĠĠĠĠĠĠĠĠ": 5459,
      "ites": 5460,
      "chr": 5461,
      "unic": 5462,
      "ĊĊĠĠĠĠĠĠĠĠParametersĊĠĠĠĠĠĠĠĠ----------ĊĠĠĠĠĠĠĠĠ": 5463,
      "andĠreturnĠ": 5464,
      ".ĊĠĠĠĠĠĠĠĠ:rtype:Ġ": 5465,
      "[0].": 5466,
      "Any": 5467,
      "s[i]": 5468,
      "/e": 5469,
      ")ĊĠĠĠĠĠĠĠĠ:paramĠ": 5470,
      "dataset_": 5471,
      "scoreĠ": 5472,
      "providerĠ": 5473,
      "fasta": 5474,
      "Http": 5475,
      "_func": 5476,
      "timeĠ=Ġ": 5477,
      "prediction": 5478,
      "scre": 5479,
      "signalĠ": 5480,
      "log.info('": 5481,
      "primaryĠ": 5482,
      "proxyĠ": 5483,
      "CPE": 5484,
      "s)ĊĠĠĠĠĠĠĠĠĠĠĠĠ": 5485,
      "{ĊĠĠĠĠĠĠĠĠ'": 5486,
      "paramsĠ=Ġ": 5487,
      "abs": 5488,
      "needĠ": 5489,
      "older": 5490,
      "wayĠ": 5491,
      "ForĠexample": 5492,
      "themĠ": 5493,
      "json.loads(": 5494,
      "Mem": 5495,
      "thisĠisĠ": 5496,
      "substit": 5497,
      "Secur": 5498,
      "op.": 5499,
      "ĠĠ\"": 5500,
      "\"\"\"In": 5501,
      "tour": 5502,
      "formattedĠ": 5503,
      "dataĠtypeĠ": 5504,
      "_mask": 5505,
      "SearchĠ": 5506,
      "execution": 5507,
      "df.": 5508,
      ":ĠThisĠ": 5509,
      "anĠerrorĠ": 5510,
      "type.": 5511,
      "'ĠorĠ'": 5512,
      ").ĊĠĠĠĠ": 5513,
      "ignore_": 5514,
      "extend(": 5515,
      "category": 5516,
      "mesh": 5517,
      "LOGGER.": 5518,
      "OĠ": 5519,
      "also": 5520,
      "minimum": 5521,
      "_msg": 5522,
      "binaryĠ": 5523,
      "deleteĠ": 5524,
      "Pass": 5525,
      "_function": 5526,
      "land_": 5527,
      "design": 5528,
      "digest": 5529,
      "sum(": 5530,
      "recentĠ": 5531,
      "traceback": 5532,
      "whoseĠ": 5533,
      "DS": 5534,
      ":ĊĠĠĠĠĠĠĠĠĠĠĠĠforĠ": 5535,
      "super": 5536,
      "someth": 5537,
      "URI": 5538,
      "smooth": 5539,
      "nk": 5540,
      ":ĠS": 5541,
      "params['": 5542,
      "gene_": 5543,
      "field.": 5544,
      ",ĊĠĠĠĠĠĠĠĠĠĠĠĠĠĠĠĠĠĠĠĠĠĠĠĠĠĠĠĠĠĠĠĠĠ": 5545,
      "moreĠthanĠ": 5546,
      "Handl": 5547,
      "absoluteĠ": 5548,
      "tain": 5549,
      ",ĠweĠ": 5550,
      "endpointĠ": 5551,
      "nameĠofĠ": 5552,
      "STR": 5553,
      "facet": 5554,
      "22": 5555,
      "=0.": 5556,
      "p[0]": 5557,
      ":ĊĠĠĠĠĠĠĠĠĠĠĠĠself._": 5558,
      "{0}Ġ": 5559,
      "``ĊĠĠĠĠĠĠĠĠ*compliance:ĠmandatoryĠ--ĠThisĠmethodĠmustĠbeĠimplemented.*": 5560,
      "fraction": 5561,
      "Repository": 5562,
      "ingĊĠĠĠĠ": 5563,
      "'''Ġ": 5564,
      "bodyĠ": 5565,
      "PUT": 5566,
      "aff": 5567,
      "ert": 5568,
      "performĠ": 5569,
      "query.": 5570,
      "override": 5571,
      "ĊĊĠĠĠĠĠĠĠĠReturnsĊĠĠĠĠĠĠĠĠ-------ĊĠĠĠĠĠĠĠĠ": 5572,
      "future": 5573,
      "criteri": 5574,
      "pted": 5575,
      "paralle": 5576,
      "value_": 5577,
      "before": 5578,
      "%s\"Ġ%Ġ": 5579,
      "Obj": 5580,
      "full_": 5581,
      "Convert": 5582,
      ":ĊĠĠĠĠ:paramĠ": 5583,
      "Of": 5584,
      "inspect": 5585,
      "ĊĊĠĠĠĠReturnsĊĠĠĠĠ-------ĊĠĠĠĠ": 5586,
      "mak": 5587,
      "behavi": 5588,
      "there": 5589,
      "manife": 5590,
      "defaultĠisĠ": 5591,
      "validate": 5592,
      "Dynamo": 5593,
      "Mis": 5594,
      "åĪ": 5595,
      ">>>": 5596,
      "eve": 5597,
      "letter": 5598,
      "record_type": 5599,
      "win": 5600,
      "namesĠ": 5601,
      "fieldsĠ": 5602,
      "sĠ(list": 5603,
      "suchĠasĠ": 5604,
      "90": 5605,
      "dn": 5606,
      "IDDĠ": 5607,
      "amountĠ": 5608,
      "cateĠ": 5609,
      "sil": 5610,
      "times": 5611,
      "ĊĉĉĊĉĉĉ": 5612,
      "_my_": 5613,
      "memoryĠ": 5614,
      "View": 5615,
      ")Ċĉ": 5616,
      "m,Ġ": 5617,
      "napshot": 5618,
      "padd": 5619,
      "at_": 5620,
      "']ĊĠĠĠĠĠĠĠĠĠĠĠĠ": 5621,
      "ssi": 5622,
      "can'tĠ": 5623,
      "annotation": 5624,
      "embed": 5625,
      "War": 5626,
      "kl": 5627,
      "ry_": 5628,
      "argv": 5629,
      "plitĠ": 5630,
      "owner": 5631,
      "CHE": 5632,
      "period": 5633,
      "Pub": 5634,
      "objectĠtoĠ": 5635,
      "doesĠnotĠexist": 5636,
      "):ĊĠĠĠĠ'''ĊĠĠĠĠ": 5637,
      "..Ġnote": 5638,
      "!!": 5639,
      "(a": 5640,
      "Length": 5641,
      "Red": 5642,
      "]Ġ+Ġ": 5643,
      "gc": 5644,
      "eĠinĠ": 5645,
      "deep": 5646,
      "delay": 5647,
      "\"\"\"Re": 5648,
      "('utf-8": 5649,
      "*compliance:ĠoptionalĠ": 5650,
      "(string)Ġ--TheĠ": 5651,
      "status_codeĠ": 5652,
      "*compliance:ĠoptionalĠ--ĠThisĠmethodĠmustĠbeĠimplement": 5653,
      "'):ĊĠĠĠĠĠĠĠĠĠĠĠĠĠĠĠĠ": 5654,
      "_token": 5655,
      "div": 5656,
      "preserv": 5657,
      ")ĊĠĠĠĠĠĠĠĠĠĠĠĠĠĠĠĠelse:ĊĠĠĠĠĠĠĠĠĠĠĠĠĠĠĠĠĠĠĠĠ": 5658,
      "matchesĠ": 5659,
      "NotĠ": 5660,
      "networkĠ": 5661,
      "Default:Ġ": 5662,
      "negativeĠ": 5663,
      "8Ġ": 5664,
      "Pop": 5665,
      "echo": 5666,
      ",ĠNone": 5667,
      "Ġ=Ġget_": 5668,
      "s,Ġ'": 5669,
      "set.": 5670,
      "logger": 5671,
      "convertedĠ": 5672,
      ".write(": 5673,
      "Que": 5674,
      "Targ": 5675,
      "gon": 5676,
      ")ĊĠĠĠĠelifĠ": 5677,
      "Ġ(string": 5678,
      "finally": 5679,
      "Ġ:Ġstr": 5680,
      "Ġ=Ġself.get_": 5681,
      "ĊĊĠĠĠĠĠĠĠĠReturns:ĊĠĠĠĠĠĠĠĠĠĠĠĠ": 5682,
      "tmp_": 5683,
      "compile": 5684,
      "From": 5685,
      "i-": 5686,
      "objectiveĠ": 5687,
      "time,Ġ": 5688,
      "messagesĠ": 5689,
      "youĠwantĠtoĠ": 5690,
      "Domain": 5691,
      "MS": 5692,
      "s):ĊĠĠĠĠĠĠĠĠ\"\"\"ĊĠĠĠĠĠĠĠĠ": 5693,
      "Ġ=Ġint(": 5694,
      "ĠtoĠbeĠ": 5695,
      "callingĠ": 5696,
      "=True)": 5697,
      "partial": 5698,
      "CK": 5699,
      "beta": 5700,
      "kĠinĠ": 5701,
      "til": 5702,
      ".split(\"": 5703,
      "1',Ġ'": 5704,
      "LIN": 5705,
      "ridĠ": 5706,
      "s:ĠTheĠ": 5707,
      "mustĠbeĠaĠ": 5708,
      "astype": 5709,
      "Authentic": 5710,
      "turn": 5711,
      "è¯": 5712,
      "inal": 5713,
      "timesĠ": 5714,
      "maxĠ": 5715,
      "assertĠisinstance(": 5716,
      "separatedĠ": 5717,
      "sentence": 5718,
      "TypeId':Ġstr(": 5719,
      ">,ĊĠĠĠĠĠĠĠĠĠĠ'": 5720,
      "Guid": 5721,
      "Stop": 5722,
      "[Ġ": 5723,
      "[1,Ġ": 5724,
      "watch": 5725,
      "ĊĠĠĠĠĠĠĠĠtry:ĊĠĠĠĠĠĠĠĠĠĠĠĠ": 5726,
      "iter_": 5727,
      "calibr": 5728,
      "class.": 5729,
      "folderĠ": 5730,
      "displayĠ": 5731,
      "(name,Ġ": 5732,
      ">,ĊĠĠĠĠĠĠĠĠĠĠĠĠ'": 5733,
      "Ter": 5734,
      "x-": 5735,
      "anim": 5736,
      "ĊĠĠĠĠĠĠĠĠĠĠĠĠĠĠĠĠself.": 5737,
      "files": 5738,
      "OneĠ": 5739,
      "Array": 5740,
      "/Ġ(": 5741,
      "ë²": 5742,
      "user_id": 5743,
      "offĠ": 5744,
      "largeĠ": 5745,
      "doct": 5746,
      "maj": 5747,
      "):ĊĠĠĠĠĠĠĠĠĠĠĠĠ#Ġ": 5748,
      "axi": 5749,
      "processe": 5750,
      "statusĠ=Ġ": 5751,
      "Mon": 5752,
      "sd": 5753,
      "coin": 5754,
      "vide": 5755,
      "account_": 5756,
      "changed": 5757,
      "Ċĉĉĉĉĉĉ": 5758,
      "Ge": 5759,
      "=ĠFalse": 5760,
      "file_name": 5761,
      "InvalidArgument": 5762,
      "0x": 5763,
      "Lev": 5764,
      "returnĠTrue": 5765,
      "dock": 5766,
      ".ĊĊĠĠĠĠĠĠĠĠ\"\"\"ĊĠĠĠĠĠĠĠĠ": 5767,
      "avo": 5768,
      "runn": 5769,
      ",ĊĠĠĠĠĠĠĠĠĠĠĠĠĠĠĠĠĠĠĠĠĠĠĠ": 5770,
      "NoAcces": 5771,
      "global_": 5772,
      "[str]": 5773,
      "ë²Ī": 5774,
      "ssh": 5775,
      "covari": 5776,
      "current.": 5777,
      "dictionar": 5778,
      "ofĊĠĠĠĠĠĠĠĠ": 5779,
      "widget": 5780,
      "NameĠofĠtheĠ": 5781,
      "contentĠ=Ġ": 5782,
      ")čĊĠĠĠĠĠĠĠĠĠĠĠĠ": 5783,
      "GB": 5784,
      "`ĠisĠnotĠ": 5785,
      "cance": 5786,
      ":ĠlistĠofĠ": 5787,
      "values,Ġ": 5788,
      "withinĠ": 5789,
      ")ĊĠĠĠĠĠĠĠĠĠĠĠĠforĠ": 5790,
      "sub_": 5791,
      "oneĠorĠmoreĠ": 5792,
      "0Ġ|": 5793,
      "includedĠ": 5794,
      "Failed": 5795,
      "íĺ¸": 5796,
      "mĠinĠ": 5797,
      "both": 5798,
      "two": 5799,
      "occurren": 5800,
      "scalar": 5801,
      "SEL": 5802,
      "\"\"\"GetĠtheĠ": 5803,
      "(x,Ġ": 5804,
      "theyĠareĠ": 5805,
      ").ĊĠĠĠĠĠĠĠĠ": 5806,
      "theĠsameĠ": 5807,
      "usesĠ": 5808,
      "withĠtheĠgivenĠ": 5809,
      "39": 5810,
      "Page": 5811,
      "ĠfileĠ": 5812,
      "ized": 5813,
      "dataĠtoĠ": 5814,
      "TypeError": 5815,
      "ë²Īíĺ¸": 5816,
      ":ĊĠĠĠĠĠĠĠĠ\"\"\"": 5817,
      "reeĠ": 5818,
      "date.": 5819,
      "prote": 5820,
      "dir,Ġ": 5821,
      ":Ġ(optional),Ġ": 5822,
      "Size": 5823,
      "ĠĠ-Ġ": 5824,
      "mac_": 5825,
      "':Ġu'": 5826,
      "beĊĠĠĠĠĠĠĠĠ": 5827,
      "os.environ": 5828,
      "sortĠ": 5829,
      "ĠofĠaĠ": 5830,
      "scale": 5831,
      "ligh": 5832,
      "aliasĠ": 5833,
      "Initializ": 5834,
      "s,ĊĠĠĠĠĠĠĠĠ": 5835,
      ",Ġdefault": 5836,
      "resp": 5837,
      "_system": 5838,
      ".ĊĊĠĠĠĠTheĠ": 5839,
      "positiveĠ": 5840,
      "s.ĠTheĠ": 5841,
      ">>>ĠfromĠhydpy.": 5842,
      "detect": 5843,
      ")*": 5844,
      "hum": 5845,
      "ĊĠĠĠĠĠĠĠĠ\"\"\"ĊĠĠĠĠĠĠĠĠ#Ġ": 5846,
      "synchron": 5847,
      "10.75": 5848,
      "54/e": 5849,
      "Life.": 5850,
      "10.7554/e": 5851,
      "10.7554/eLife.": 5852,
      "Email": 5853,
      ",ĊĠĠĠĠĠĠĠĠĠĠĠĠĠĠĠĠĠĠĠĠĠĠĠĠĠĠ": 5854,
      "index_": 5855,
      "),Ġ\"": 5856,
      ".execute": 5857,
      "=[": 5858,
      "Elast": 5859,
      "unpack": 5860,
      "trim": 5861,
      "key:Ġ": 5862,
      ",ĊĠĠĠĠĠĠĠĠĠĠĠĠĠĠĠĠĠĠĠĠĠĠĠĠĠĠĠ": 5863,
      "method,Ġ": 5864,
      "neededĠ": 5865,
      "Cache": 5866,
      "Osid": 5867,
      "ies.": 5868,
      "ofĠanĠ": 5869,
      "ĊĊĠĠĠĠParametersĊĠĠĠĠ----------ĊĠĠĠĠ": 5870,
      "ĊĠĠĠĠĠĠĠĠĠĠĠĠĠĠĠĠĠĠĠĠĠĠĠĠ'": 5871,
      "failed": 5872,
      "sensit": 5873,
      "version_": 5874,
      "bad": 5875,
      "returnĠNone": 5876,
      "'ĠnotĠinĠ": 5877,
      "firm": 5878,
      "daem": 5879,
      "StartĠ": 5880,
      "exc_info": 5881,
      "Usage": 5882,
      "Down": 5883,
      "eĠtoĠ": 5884,
      "sĠbyĠ": 5885,
      "experiment": 5886,
      "func_": 5887,
      "dictĠofĠ": 5888,
      "entriesĠ": 5889,
      "particularĠ": 5890,
      "equival": 5891,
      "ered": 5892,
      "ded_": 5893,
      "``None": 5894,
      "onlyĠtheĠ": 5895,
      "astro": 5896,
      "platform": 5897,
      "Document": 5898,
      "+)": 5899,
      "a-": 5900,
      "=Ġ\"": 5901,
      "':Ġ123": 5902,
      "pylint": 5903,
      "visible_": 5904,
      "(dict)Ġ--": 5905,
      "Equ": 5906,
      "s):ĊĠĠĠĠĠĠĠĠ\"\"\"": 5907,
      "specify": 5908,
      "updated": 5909,
      "match_": 5910,
      "Ġ:Ġfloat": 5911,
      "repositoryĠ": 5912,
      "Boo": 5913,
      "TypeId':Ġstr(DEFAULT_": 5914,
      "`ĠtoĠ": 5915,
      "exact": 5916,
      "sĊĠĠĠĠĠĠĠĠ:paramĠ": 5917,
      "number_": 5918,
      "Assign": 5919,
      "FieldĠ`": 5920,
      "moreĠinformation,ĠseeĠ": 5921,
      "on.": 5922,
      "sĠonĠtheĠ": 5923,
      ",ĊĠĠĠĠĠĠĠĠĠĠĠĠĠĠĠĠĠĠĠĠĠĠĠĠ'": 5924,
      "explic": 5925,
      "marker": 5926,
      "printĠ\"": 5927,
      "prompt": 5928,
      "GuideĠ": 5929,
      "GU": 5930,
      "s\"]": 5931,
      "int_": 5932,
      "):ĠaĠ": 5933,
      "sort_": 5934,
      "ENT": 5935,
      "IDDĠFieldĠ`": 5936,
      "'_": 5937,
      "datas": 5938,
      "forĠallĠ": 5939,
      ")ĠtoĠ": 5940,
      "assumedĠtoĠbeĠ": 5941,
      "SQLĠ": 5942,
      "PA": 5943,
      "`\"\"\"ĊdefĠ": 5944,
      "StateĠ": 5945,
      "each": 5946,
      "):ĊĠĠĠĠĠĠĠĠĠĠĠĠĠĠĠĠifĠ": 5947,
      "asyncĠ": 5948,
      "keywordĠargument": 5949,
      "Ġfile": 5950,
      "\"\"\"ConvertĠ": 5951,
      "quis": 5952,
      "angleĠ": 5953,
      "s[-1]": 5954,
      "Level": 5955,
      ":ĊĊĠĠĠĠ": 5956,
      "ly_": 5957,
      "ree.": 5958,
      "scen": 5959,
      "')ĊĠĠĠĠĠĠĠĠ>>>Ġ": 5960,
      "mostĠrecentĠ": 5961,
      "2,": 5962,
      "resĠ": 5963,
      "object,Ġ": 5964,
      ",ĊĠĠĠĠĠĠĠĠĠĠĠĠĠĠĠĠĠĠĠĠĠĠĠĠĠĠĠĠĠĠĠ": 5965,
      "tack": 5966,
      "ifĠnotĠself.": 5967,
      "lambdaĠx:Ġ": 5968,
      "(path": 5969,
      "(boolean": 5970,
      ":%": 5971,
      ":ĊĊĠĠĠĠĠĠĠĠĠĠĠĠ": 5972,
      ":ĊĠĠĠĠĠĠĠĠ:paramĠ": 5973,
      "reshape": 5974,
      "bank_id": 5975,
      "duringĠ": 5976,
      "(key": 5977,
      "(1,Ġ": 5978,
      "),ĊĠĠĠĠĠĠĠĠĠĠĠĠĠĠĠĠ": 5979,
      "typeĠisĠ": 5980,
      "1000": 5981,
      "whetherĠtheĠ": 5982,
      "._my_": 5983,
      "PAR": 5984,
      "Wa": 5985,
      "_D": 5986,
      "ponent": 5987,
      "thisĠmethodĠ": 5988,
      "Cond": 5989,
      "entries": 5990,
      "':ĠTrue|False": 5991,
      "Api": 5992,
      "zon": 5993,
      "text(": 5994,
      "usedĠinĠ": 5995,
      "Image": 5996,
      "\">": 5997,
      "65": 5998,
      "Open": 5999,
      ":Ġ\"": 6000,
      ")Ġ<Ġ": 6001,
      "memberĠ": 6002,
      "Mat": 6003,
      "ize(": 6004,
      "submit": 6005,
      "logger.info(\"": 6006,
      "1-": 6007,
      "8.": 6008,
      "replaceĠ": 6009,
      "map(": 6010,
      "representingĠtheĠ": 6011,
      "..Ġcode": 6012,
      ":ĊĠĠĠĠĠĠ|": 6013,
      "InvalidParameter": 6014,
      "my_map['": 6015,
      "'-": 6016,
      "6.": 6017,
      ",Ġname": 6018,
      "en_": 6019,
      "obj['": 6020,
      "header_": 6021,
      "writtenĠ": 6022,
      "params=params,Ġ": 6023,
      ".\"\"\"ĊĠĠĠĠ": 6024,
      "])ĊĠĠĠĠĠĠĠĠ": 6025,
      "fall": 6026,
      "cogn": 6027,
      "image.": 6028,
      "calĠ": 6029,
      "creat": 6030,
      "best": 6031,
      "oneĠofĠtheĠ": 6032,
      "_manag": 6033,
      "Gen": 6034,
      "colo": 6035,
      "Constraint": 6036,
      ",Ġ'w": 6037,
      "ireĠ": 6038,
      "CheckĠifĠ": 6039,
      "RunĠ": 6040,
      "ErrorĠasĠe": 6041,
      "g,Ġ": 6042,
      "ìĿ": 6043,
      "appe": 6044,
      "running": 6045,
      "_idĠ(osid.id.Id):ĠtheĠ``Id``Ġ": 6046,
      "GeneratedĠ": 6047,
      "campaign": 6048,
      "[3": 6049,
      "dx": 6050,
      "r,Ġ": 6051,
      "amin": 6052,
      "nom": 6053,
      "params:Ġ": 6054,
      ")ĊĠĠĠĠĠĠĠĠreturnĠself._": 6055,
      "ast.": 6056,
      "jection": 6057,
      "bel": 6058,
      "gitĠ": 6059,
      "y-": 6060,
      "compo": 6061,
      ".ĊĊĠĠĠĠĠĠĠĠ:paramĠstrĠ": 6062,
      "ĊĊĠĠĠĠĠĠĠĠĠĠĠĠĠĠĠĠ#Ġ": 6063,
      "CI": 6064,
      "Syn": 6065,
      "toĊĠĠĠĠ": 6066,
      "aĠfileĠ": 6067,
      "objĠ=Ġ": 6068,
      ")ĊĠĠĠĠforĠ": 6069,
      "boot": 6070,
      "NOTE": 6071,
      "derived.": 6072,
      "UnimplementedĠ": 6073,
      "ĊĊĠĠĠĠĠĠĠĠ\"\"\"ĊĠĠĠĠĠĠĠĠ#ĠImplementedĠfromĠtemplateĠfor": 6074,
      "XX": 6075,
      "_l": 6076,
      "fh": 6077,
      "_mess": 6078,
      "')ĊĠĠĠĠĠĠĠĠifĠ": 6079,
      "validationĠ": 6080,
      "integr": 6081,
      "whileĠTrue": 6082,
      "Pa": 6083,
      "minĠ": 6084,
      "ĠfromĠ": 6085,
      "power": 6086,
      "value:Ġ": 6087,
      "icro": 6088,
      "classifi": 6089,
      "bytes": 6090,
      "search(": 6091,
      "stream_": 6092,
      "parameterĠisĠ": 6093,
      "GroupName": 6094,
      "Templ": 6095,
      "Determin": 6096,
      "PleaseĠ": 6097,
      "aĊĠĠĠĠ": 6098,
      ",ĊĠĠĠĠĠĠĠĠĠĠĠĠĠĠĠĠĠĠĠĠĠĠĠĠĠĠĠĠĠĠ": 6099,
      "context.": 6100,
      "stop_": 6101,
      "releaseĠ": 6102,
      "assessment_part_": 6103,
      "iver": 6104,
      "ivity": 6105,
      "nestedĠ": 6106,
      "utton": 6107,
      "Be": 6108,
      "Message": 6109,
      "cut": 6110,
      "entity": 6111,
      "contour": 6112,
      "shel": 6113,
      "min(": 6114,
      "_message": 6115,
      "AnyĠ": 6116,
      "`ĠandĠ`": 6117,
      "doctest": 6118,
      "Boole": 6119,
      "CP": 6120,
      "gate": 6121,
      "):čĊĠĠĠĠĠĠĠĠ": 6122,
      "feed": 6123,
      "logging": 6124,
      "STAT": 6125,
      "passedĠtoĠ": 6126,
      "kwargs.get('": 6127,
      "library": 6128,
      "she": 6129,
      "ictĠ": 6130,
      "user.": 6131,
      "ĊĠĠ#Ġ": 6132,
      "sĠforĠaĠ": 6133,
      "(source": 6134,
      "false``ĊĠĠĠĠĠĠĠĠ": 6135,
      "(notĠ": 6136,
      "s:ĊĠĠĠĠĠĠĠĠĠĠĠĠifĠ": 6137,
      "codon": 6138,
      "overĠtheĠ": 6139,
      "recipi": 6140,
      "Director": 6141,
      "bal": 6142,
      "nes": 6143,
      "ĠthatĠ": 6144,
      ":ĠAnĠ": 6145,
      "``.ĊĊĠĠĠĠĠĠĠĠarg:ĠĠĠĠ": 6146,
      "mote": 6147,
      "ange(": 6148,
      "aussi": 6149,
      "args['": 6150,
      "all(": 6151,
      "ongo": 6152,
      "root.": 6153,
      "PrintĠ": 6154,
      "directlyĠ": 6155,
      "securityĠ": 6156,
      "false``ĊĠĠĠĠĠĠĠĠ*compliance:ĠoptionalĠ--ĠThisĠmethodĠmustĠbeĠimplement": 6157,
      "85": 6158,
      "PRO": 6159,
      "_su": 6160,
      "menu": 6161,
      "Port": 6162,
      "Stack": 6163,
      "mole": 6164,
      "withinĠtheĠ": 6165,
      "Exception('": 6166,
      "size,Ġ": 6167,
      "If": 6168,
      "ISĠ": 6169,
      "ep_": 6170,
      "rup": 6171,
      "pathĠtoĠtheĠ": 6172,
      "Returns:ĊĠĠĠĠĠĠĠĠĠĠĠĠ": 6173,
      ",ĊĠĠĠĠĠĠĠĠĠĠĠĠĠĠĠĠĠĠĠ": 6174,
      "workflowĠ": 6175,
      "os.path": 6176,
      "some": 6177,
      "flush": 6178,
      "explicit": 6179,
      "_length": 6180,
      "hor": 6181,
      "id']": 6182,
      "ado": 6183,
      "deleted": 6184,
      "wavelength": 6185,
      "cb": 6186,
      "ĊĠĠĠĠĠĠĠĠĠĠĠĠ\"": 6187,
      "adap": 6188,
      "publicĠ": 6189,
      "_from_": 6190,
      "immedi": 6191,
      "ThereĠ": 6192,
      "'%s'": 6193,
      "0-": 6194,
      "]ĊĊĠĠĠĠĠĠĠĠ": 6195,
      "big": 6196,
      "stillĠ": 6197,
      "respect": 6198,
      "config['": 6199,
      "result,Ġ": 6200,
      "_mult": 6201,
      "table_": 6202,
      "manager": 6203,
      "analys": 6204,
      "sigma": 6205,
      "\\ĊĠĠĠĠĠĠĠĠĠĠĠĠĠĠĠĠĠĠĠĠ": 6206,
      "cos(": 6207,
      "',Ġ''": 6208,
      "htmlĠ": 6209,
      "iteratorĠ": 6210,
      "TOĠ": 6211,
      "FRO": 6212,
      "ĊĠĠĠĠĠĠĠĠĠĠĠĠĠĠĠĠĠĠ": 6213,
      "valĠ=Ġ": 6214,
      ",ĊĠĠĠĠĠĠĠĠĠĠĠĠĠĠĠĠĠĠĠĠĠĠĠĠĠ": 6215,
      "matches": 6216,
      "iteration": 6217,
      "memory": 6218,
      "MAG": 6219,
      "escape": 6220,
      "ensureĠ": 6221,
      "ĊĠĠĠĠĠĠĠĠĠĠĠĠIfĠ": 6222,
      "concat": 6223,
      "dict[": 6224,
      "static": 6225,
      "fields": 6226,
      "private": 6227,
      "application/": 6228,
      "precision": 6229,
      "mm": 6230,
      "orĠNone": 6231,
      "string(": 6232,
      "',Ġ'--": 6233,
      "traject": 6234,
      "Enable": 6235,
      "ĊĊĠĠĠĠĠĠĠĠifĠself.": 6236,
      "/api/v1/": 6237,
      "Security": 6238,
      ":čĊĠĠĠĠĠĠĠĠ": 6239,
      "instances": 6240,
      "ax.set_": 6241,
      "redu": 6242,
      "']Ġ=Ġ'": 6243,
      "Role": 6244,
      "'ĊĊĠĠĠĠĠĠĠĠ": 6245,
      "UsedĠ": 6246,
      "cid": 6247,
      "her": 6248,
      "encodingĠ": 6249,
      "_sizeĠ": 6250,
      "ValidĠ": 6251,
      "Color": 6252,
      "pagin": 6253,
      "],ĊĠĠĠĠĠĠĠĠĠĠĠĠ'": 6254,
      "br": 6255,
      "ight_": 6256,
      "io.": 6257,
      "edgeĠ": 6258,
      "edgesĠ": 6259,
      "[key]Ġ=Ġ": 6260,
      "my_osid_object_form": 6261,
      "'+": 6262,
      "500": 6263,
      "NS": 6264,
      "X,Ġ": 6265,
      "[x": 6266,
      "rt(": 6267,
      "theta": 6268,
      "arange(": 6269,
      "\"\"\"ĊĠĠĠĠifĠ": 6270,
      "``True": 6271,
      "izationĠ": 6272,
      "acro": 6273,
      "scriptĠ": 6274,
      "package_": 6275,
      "module_": 6276,
      "functionĠthatĠ": 6277,
      "parse(": 6278,
      "parsed_": 6279,
      "dynam": 6280,
      "Sho": 6281,
      "odĠ": 6282,
      "Ġ/Ġ": 6283,
      "s.items(": 6284,
      "directĠ": 6285,
      "Trace": 6286,
      "86": 6287,
      "`Ġ(": 6288,
      "sorĠ": 6289,
      "poll": 6290,
      ".ĠToĠ": 6291,
      ".ĊĠĠĠĠĠĠĠĠIfĠ": 6292,
      "final": 6293,
      "init__": 6294,
      "shape[0]": 6295,
      ",Ġm": 6296,
      "ĊĠĠĠĠĠĠĠĠĠĠĠĠĠĠĠĠĠ": 6297,
      "``.*": 6298,
      "contra": 6299,
      "numpyĠarray": 6300,
      "iĠ=Ġ": 6301,
      "rep": 6302,
      "REC": 6303,
      "whichĠisĠ": 6304,
      "query(": 6305,
      "Proper": 6306,
      "bytesĠ": 6307,
      "ward": 6308,
      "FAST": 6309,
      "manager.": 6310,
      "force_": 6311,
      "Take": 6312,
      "=1,Ġ": 6313,
      "V_": 6314,
      "hereĠ": 6315,
      "ome": 6316,
      "rl": 6317,
      "{2": 6318,
      "čĊĠĠĠĠĠĠĠĠĠĠĠĠĠĠĠĠĠĠĠĠĠĠĠĠ": 6319,
      "leaf": 6320,
      ":Ġboolean": 6321,
      "retri": 6322,
      "ceĠ=Ġ": 6323,
      "``ĠandĠ": 6324,
      "resultingĠ": 6325,
      "()ĊĠĠĠĠĠĠĠĠself.": 6326,
      "()ĠforĠ": 6327,
      "certifi": 6328,
      "snapshot": 6329,
      "drop": 6330,
      "\")ĊĊĠĠĠĠ": 6331,
      "rm": 6332,
      "ous_": 6333,
      "action='": 6334,
      "velo": 6335,
      "cycle": 6336,
      "registeredĠ": 6337,
      "1ĊĠĠĠĠĠĠĠĠ": 6338,
      "A-": 6339,
      "no-": 6340,
      "NoneĠelseĠ": 6341,
      "s.ĊĊĠĠĠĠ:paramĠ": 6342,
      "Accept": 6343,
      "yaml": 6344,
      "delim": 6345,
      "datat": 6346,
      "conta": 6347,
      "withĠthisĠ": 6348,
      "Parse": 6349,
      "elifĠisinstance(": 6350,
      "SA": 6351,
      "ifĠnoĠ": 6352,
      "not_": 6353,
      "Indicat": 6354,
      "VE": 6355,
      "__name__": 6356,
      "ys": 6357,
      ".ĊĊĠĠĠĠĠĠĠĠ@paramĠ": 6358,
      "info(": 6359,
      "message.": 6360,
      "disable=": 6361,
      "top_": 6362,
      ".Ġ(": 6363,
      "perm": 6364,
      ")ĊĊĠĠĠĠĠĠĠĠself.": 6365,
      "s:Ġlist": 6366,
      "other_": 6367,
      ":ĠTheĠnameĠofĠtheĠ": 6368,
      "HandleĠ": 6369,
      "descend": 6370,
      "\".": 6371,
      "(len(": 6372,
      ").\"\"\"ĊdefĠ": 6373,
      "_view": 6374,
      "nor": 6375,
      "deredĠ": 6376,
      "s_list": 6377,
      "))ĊĠĠĠĠĠĠĠĠĠĠĠĠĠĠĠĠĠĠĠĠ": 6378,
      "array-like": 6379,
      "answer": 6380,
      "App": 6381,
      "plication": 6382,
      "400": 6383,
      "calend": 6384,
      "valuesĠforĠ": 6385,
      "sĠ=Ġ[]ĊĠĠĠĠĠĠĠĠforĠ": 6386,
      "course_id": 6387,
      "\"%s": 6388,
      "0,": 6389,
      "FL": 6390,
      "WS": 6391,
      "ingĠforĠ": 6392,
      "probabilityĠ": 6393,
      "separator": 6394,
      "pylint:Ġ": 6395,
      ".from_": 6396,
      "My": 6397,
      "np": 6398,
      "íĮ": 6399,
      "typ": 6400,
      "vip": 6401,
      "IDĠofĠtheĠ": 6402,
      "(r'": 6403,
      "descriptor": 6404,
      "rate": 6405,
      "trail": 6406,
      "registered": 6407,
      "needed": 6408,
      "35": 6409,
      "Ax": 6410,
      "game": 6411,
      "}ĊĠĠĠĠĠĠĠĠĠĠĠĠ": 6412,
      "reserv": 6413,
      "fĠinĠ": 6414,
      "Ġ=Ġlen(": 6415,
      "ĊĊĠĠĠĠforĠ": 6416,
      "ĠĠĠĠĠĠĠĠĠĠĠĠĠĠĠĠĠĠĠĠĠĠĠĠĠĠĠĠĠĠĠĠ": 6417,
      "Expect": 6418,
      "cally": 6419,
      ",ĊĠĠĠĠĠĠĠĠĠĠĠĠĠĠĠĠĠĠ": 6420,
      "REĠ": 6421,
      "date,Ġ": 6422,
      "Modi": 6423,
      "\"]Ġ=Ġ\"": 6424,
      "xml_": 6425,
      "field_name": 6426,
      "ResponseĠ": 6427,
      "FilterĠ": 6428,
      "AutoĠGeneratedĠ": 6429,
      "AutoĠGeneratedĠCode": 6430,
      "ĊĠĠĠĠĠĠĠĠĠĠĠĠĠĠĠĠforĠ": 6431,
      "call_": 6432,
      "row_": 6433,
      "Device": 6434,
      "plot(": 6435,
      "specifyĠaĠ": 6436,
      "gue": 6437,
      "fromĠpyhpeimc.": 6438,
      "{}čĊĠĠĠĠĠĠĠĠ": 6439,
      "infoĠ": 6440,
      "generateĠtheĠ": 6441,
      "Engin": 6442,
      "3/": 6443,
      "Action": 6444,
      "lotĠ": 6445,
      "s[key": 6446,
      "node,Ġ": 6447,
      "response(": 6448,
      "allowedĠ": 6449,
      "FirstĠ": 6450,
      "HIT": 6451,
      "PL": 6452,
      "bum": 6453,
      "anch": 6454,
      "\"\"\"F": 6455,
      "moment": 6456,
      ")),Ġ": 6457,
      "itemsĠ": 6458,
      "attrib": 6459,
      "toĠtheĠgivenĠ": 6460,
      "(string)Ġ--Ġ": 6461,
      "Metadata.": 6462,
      "[REQUIRED]ĊĠĠĠĠĠĠĠĠĠĠĠĠ": 6463,
      "federation": 6464,
      "edĠifĊĠĠĠĠĠĠĠĠ``supports_": 6465,
      "false``ĊĠĠĠĠĠĠĠĠ*compliance:ĠoptionalĠ--ĠThisĠmethodĠmustĠbeĠimplementedĠifĊĠĠĠĠĠĠĠĠ``supports_": 6466,
      "(url,Ġ": 6467,
      "SO": 6468,
      "zoneĠ": 6469,
      "toĠanĠ": 6470,
      "s.ĊĠĠĠĠ\"\"\"ĊĠĠĠĠ": 6471,
      "bestĠ": 6472,
      "communic": 6473,
      "execu": 6474,
      "WhetherĠtoĠ": 6475,
      "_c": 6476,
      "pw": 6477,
      "\"\"\"Calcul": 6478,
      "entireĠ": 6479,
      "typeĠ==Ġ'": 6480,
      "beg": 6481,
      "lah": 6482,
      "soĠthatĠ": 6483,
      "job.": 6484,
      "write(\"": 6485,
      "propertiesĠ": 6486,
      "every": 6487,
      "Variable": 6488,
      "MET": 6489,
      "s.get_": 6490,
      "pectĠ": 6491,
      "master": 6492,
      "specialĠ": 6493,
      "2Ġ*Ġ": 6494,
      "possible": 6495,
      "k,ĠvĠinĠ": 6496,
      "æĸĩ": 6497,
      "SELEC": 6498,
      "(Ġ": 6499,
      "mk": 6500,
      "develo": 6501,
      "\"\"\"ĊdefĠset_": 6502,
      "assi": 6503,
      "app_": 6504,
      "classes": 6505,
      "closeĠ": 6506,
      "ArrayĠ": 6507,
      "objective_bank_id": 6508,
      "UnimplementedĠ-Ġ``": 6509,
      "pylint:Ġdisable=": 6510,
      "RĠ": 6511,
      "ĠĠĠĠĠĠĠĠĠĠĠ": 6512,
      "prin": 6513,
      "actuallyĠ": 6514,
      "callableĠ": 6515,
      "rowser": 6516,
      "grad": 6517,
      "Datab": 6518,
      "base64": 6519,
      ",ĊĠĠĠĠĠĠĠĠĠĠĠĠĠĠĠĠĠĠĠĠĠĠĠĠĠĠĠĠĠĠĠĠĠĠĠĠĠĠĠ": 6520,
      "msgĠ=Ġ'": 6521,
      "(self):ĊĠĠĠĠĠĠĠĠ\"\"\"Ġ": 6522,
      "repository.": 6523,
      "():ĊĠĠĠĠĠĠĠĠ": 6524,
      "NE": 6525,
      "r'": 6526,
      "anĊĠĠĠĠĠĠĠĠ": 6527,
      ":Ġ+": 6528,
      "Produ": 6529,
      "alled": 6530,
      "HTMLĠ": 6531,
      "individualĠ": 6532,
      "visible_federation": 6533,
      "UnimplementedĠ-Ġ``supports_": 6534,
      "(0.": 6535,
      "WillĠ": 6536,
      "uff": 6537,
      "file=": 6538,
      "short": 6539,
      "dataĠfromĠ": 6540,
      "field,Ġ": 6541,
      "logger.debug('": 6542,
      "s/{": 6543,
      "expand": 6544,
      "Send": 6545,
      "atur": 6546,
      "finalĠ": 6547,
      "updatedĠ": 6548,
      "ĊĠĠĠĠĠĠĠĠraise:ĠĠNotFoundĠ-Ġ``": 6549,
      "processor": 6550,
      "SION": 6551,
      "fmt": 6552,
      "ascii": 6553,
      "BUG": 6554,
      "(obj": 6555,
      "ideĠ": 6556,
      "ped_": 6557,
      "log(\"": 6558,
      "Polic": 6559,
      "previous": 6560,
      "destinationĠ": 6561,
      "itespa": 6562,
      ".items(": 6563,
      "2*": 6564,
      "6Ġ": 6565,
      "**path": 6566,
      "_id:Ġ": 6567,
      "refer": 6568,
      "helper": 6569,
      "intensit": 6570,
      "Dir": 6571,
      "Su": 6572,
      "=Ġnp.": 6573,
      "conside": 6574,
      "quot": 6575,
      "may": 6576,
      "ĊĊĠĠĠĠĠĠĠĠ\"\"\"ĊĠĠĠĠĠĠĠĠ#ĠImplementedĠfromĠtemplateĠforĊĠĠĠĠĠĠĠĠ#Ġosid.resource.": 6577,
      "ĊĠĠĠĠĠĠĠĠĠĠĠĠĠĠĠĠ\"": 6578,
      "str|": 6579,
      "data:Ġ": 6580,
      "==Ġ1": 6581,
      "_schem": 6582,
      "ĠtoĠaĠ": 6583,
      "single_": 6584,
      "logger.info('": 6585,
      "locator": 6586,
      "doctest:Ġ+": 6587,
      "cp": 6588,
      ",ĠinĠ": 6589,
      "predict": 6590,
      "Contain": 6591,
      "provideĠ": 6592,
      "Ordered": 6593,
      "decoratorĠ": 6594,
      "VALU": 6595,
      "J_": 6596,
      "heightĠ": 6597,
      "read_only": 6598,
      "(orĠ": 6599,
      "sĊĠĠĠĠĠĠĠĠifĠ": 6600,
      "retĠ=Ġ": 6601,
      "\"\"\"čĊĠĠĠĠĠĠĠĠifĠ": 6602,
      "tooĠ": 6603,
      "ifĠ'": 6604,
      "lik": 6605,
      "contig": 6606,
      "home": 6607,
      "kwargs:Ġ": 6608,
      "changesĠ": 6609,
      "capt": 6610,
      "ĊĊĠĠĠĠĠĠĠĠ:return:Ġ": 6611,
      "isĊĠĠĠĠĠĠĠĠĠĠĠĠĠĠĠĠ``": 6612,
      "sub-": 6613,
      "remote_": 6614,
      "Traceback": 6615,
      "PS": 6616,
      "plen": 6617,
      "table,Ġ": 6618,
      "sectionĠ": 6619,
      "SIG": 6620,
      "DELET": 6621,
      "somethingĠ": 6622,
      "marg": 6623,
      "ĊĊĠĠ<": 6624,
      "numpy.ndarray": 6625,
      "aroundĠ": 6626,
      "Warning": 6627,
      "(N": 6628,
      ".py": 6629,
      "arti": 6630,
      "'])": 6631,
      "columnsĠ": 6632,
      "_type,Ġ": 6633,
      ".ĠĠTheĠ": 6634,
      "scan_": 6635,
      "const.": 6636,
      "Authorization": 6637,
      "CHEMA": 6638,
      "P_": 6639,
      "dra": 6640,
      "']Ġ": 6641,
      "containerĠ": 6642,
      "haveĠbeenĠ": 6643,
      "sequences.": 6644,
      "Only": 6645,
      "_map['": 6646,
      "throughĠtoĠ": 6647,
      "0.0,Ġ0.0,Ġ": 6648,
      ":raises:Ġ": 6649,
      "apply_": 6650,
      "priority": 6651,
      "27": 6652,
      "q.": 6653,
      "isn'tĠ": 6654,
      "raiseĠType": 6655,
      "Ext": 6656,
      "_mem": 6657,
      "s=True": 6658,
      "ware": 6659,
      "ierarchy": 6660,
      "auth.cred": 6661,
      "[1:]": 6662,
      "takesĠ": 6663,
      "TSĠ": 6664,
      "s=None": 6665,
      "s>ĊĠĠĠĠ": 6666,
      "portedĠ": 6667,
      "InputĠ": 6668,
      ")ĊĊĠĠĠĠĠĠĠĠforĠ": 6669,
      "auth_": 6670,
      "struct.": 6671,
      "cript": 6672,
      "expressionĠ": 6673,
      "ìŀĲ": 6674,
      "\"}": 6675,
      "PY": 6676,
      "alledĠ": 6677,
      "()ĊĊĠĠĠĠĠĠĠĠ#Ġ": 6678,
      "line(": 6679,
      "model,Ġ": 6680,
      "centr": 6681,
      "decry": 6682,
      "COL": 6683,
      "blue": 6684,
      "Equip": 6685,
      "1/": 6686,
      "84": 6687,
      "WORD": 6688,
      "Ã§": 6689,
      "station": 6690,
      "temĠ": 6691,
      "ĊĠĠĠĠĠĠĠĠĠĠĠĠĠĠĠĠĠĠĠĠĠĠĠĠĠĠ": 6692,
      "object.": 6693,
      "Context": 6694,
      "EC2Ġ": 6695,
      "sequenceĠofĠ": 6696,
      "Header": 6697,
      "fg": 6698,
      "td": 6699,
      "theĠgivenĠ": 6700,
      "\"\"\"TheĠ": 6701,
      "sĠtoĠaĠ": 6702,
      "PerformĠ": 6703,
      "=\"\"": 6704,
      "It": 6705,
      "dail": 6706,
      "v2": 6707,
      "ĊĠĠĠĠ#": 6708,
      ":Ġ[": 6709,
      "ifĠaĠ": 6710,
      ")ĊĠĠĠĠĠĠĠĠtry:ĊĠĠĠĠĠĠĠĠĠĠĠĠ": 6711,
      "shell": 6712,
      "whitespa": 6713,
      "itĠtoĠ": 6714,
      "_sign": 6715,
      "laz": 6716,
      "processing": 6717,
      "Ġ:Ġint": 6718,
      ":ĠstrĊĠĠĠĠĠĠĠĠ": 6719,
      "isĠnotĠNone:ĊĠĠĠĠĠĠĠĠ": 6720,
      "',ĊĠĠĠĠĠĠĠĠĠĠĠĠĠĠĠĠĠĠĠĠĠĠĠĠĠĠĠĠĠĠĠĠĠĠĠĠĠĠĠĠĠ": 6721,
      ".is": 6722,
      "s('": 6723,
      "vĠ=Ġ": 6724,
      "ĊĊĠĠĠĠĠĠĠĠĠĠĠĠĠĠĠĠĠĠĠĠ": 6725,
      "redi": 6726,
      "\"\"\"Get": 6727,
      "rol": 6728,
      "indowĠ": 6729,
      "frac": 6730,
      "altern": 6731,
      "\"\"\"čĊĠĠĠĠĠĠĠĠ": 6732,
      "faces": 6733,
      "commonĠ": 6734,
      "temp_": 6735,
      "()ĊĠĠĠĠĠĠĠĠforĠ": 6736,
      "exceptĠAttributeError": 6737,
      ",ĊĠĠĠĠĠĠĠĠĠĠĠĠĠĠĠĠĠĠĠĠĠĠĠĠĠĠĠĠĠĠĠĠĠĠĠĠĠ": 6738,
      "downloadĠ": 6739,
      "selectedĠ": 6740,
      "coordinates": 6741,
      "wron": 6742,
      "resources": 6743,
      "edĠfromĠtheĠ": 6744,
      "verifi": 6745,
      "values(": 6746,
      "Second": 6747,
      "<Ġ0": 6748,
      "server_": 6749,
      "vault_": 6750,
      "e-": 6751,
      "ĊĠĠĠĠĠĠĠĠ@": 6752,
      "conso": 6753,
      "adeĠ": 6754,
      "getattr(self,Ġ": 6755,
      "doc_": 6756,
      ".ĊĊĠĠĠĠĠĠĠĠThisĠ": 6757,
      "Ġ-Ġ1": 6758,
      "tree.": 6759,
      "encodedĠ": 6760,
      "primary_": 6761,
      "Optional[": 6762,
      "invok": 6763,
      "Byte": 6764,
      "CannotĠ": 6765,
      "|ĊĠĠĠĠĠĠĠĠ|ĠĠĠ": 6766,
      "Fact": 6767,
      "liter": 6768,
      "ãĢ": 6769,
      ")))": 6770,
      "*Ġ``": 6771,
      "actual": 6772,
      "ĠforĠaĠ": 6773,
      "workingĠ": 6774,
      "implementationĠ": 6775,
      "Coun": 6776,
      "(ĊĠĠĠĠĠĠĠĠĠĠĠĠ'": 6777,
      "amount": 6778,
      "modified": 6779,
      "problem": 6780,
      "C_": 6781,
      "Use": 6782,
      "íļ": 6783,
      "needĠtoĠbeĠ": 6784,
      "ectĠ=Ġ": 6785,
      "timedelta": 6786,
      "launch": 6787,
      "connectĠ": 6788,
      ")ĊĠĠĠĠĠĠĠĠifĠself.": 6789,
      "DEBUG": 6790,
      "http://www.": 6791,
      "\"Ġ+Ġstr(": 6792,
      "Tuple": 6793,
      "íļĮ": 6794,
      "coeffici": 6795,
      "s.update(": 6796,
      "con.": 6797,
      "board": 6798,
      "nameĠtoĠ": 6799,
      "_sco": 6800,
      "metadata.": 6801,
      "(s)Ġ": 6802,
      "]Ġ*Ġ": 6803,
      "List)Ġ-ĠtheĠ": 6804,
      "Timeout": 6805,
      "filenameĠ=Ġ": 6806,
      "hi": 6807,
      "s(self):ĊĠĠĠĠĠĠĠĠ\"\"\"ĊĠĠĠĠĠĠĠĠ": 6808,
      "query,Ġ": 6809,
      "],Ġ[": 6810,
      "socket.": 6811,
      ":Ċĉĉ": 6812,
      "self,Ġ": 6813,
      "_mon": 6814,
      "methodĠtoĠ": 6815,
      "if_": 6816,
      "ObjectĠ": 6817,
      "secondsĠ": 6818,
      "Regex": 6819,
      "Python": 6820,
      "CR": 6821,
      "it.": 6822,
      "sĠ=Ġlist(": 6823,
      "sizeĠ=Ġ": 6824,
      "default:Ġ": 6825,
      "hasĠaĠ": 6826,
      "topĠ": 6827,
      "(osid.id.Id):Ġ": 6828,
      "determineĠ": 6829,
      "wiki": 6830,
      "s2": 6831,
      "config_file": 6832,
      "processingĠ": 6833,
      "log.debug('": 6834,
      "volumeĠ": 6835,
      "Cap": 6836,
      "nav": 6837,
      "stud": 6838,
      ".ĠAĠ": 6839,
      "s,ĠtheĠ": 6840,
      "loggingĠ": 6841,
      "generateĠ": 6842,
      "address_": 6843,
      "pandas.DataFrame": 6844,
      "9.": 6845,
      "epo": 6846,
      "ffĠ": 6847,
      "ĊĊĠĠĠĠ\"\"\"ĊĠĠĠĠ": 6848,
      "ivelyĠ": 6849,
      "type\":Ġ\"": 6850,
      "s_per_": 6851,
      "render_": 6852,
      "ateg": 6853,
      "))ĊĊĠĠĠĠĠĠĠĠ#Ġ": 6854,
      "requestsĠ": 6855,
      "ify": 6856,
      "address": 6857,
      ".ĠThisĠisĠ": 6858,
      "sureĠtheĠ": 6859,
      "MustĠbeĠ": 6860,
      "UC": 6861,
      "{:": 6862,
      "...ĠĠĠĠĠĠĠĠĠĠĠĠĠĠĠĠ": 6863,
      "sessmentĠ": 6864,
      "OperationFailed": 6865,
      "languageĠ": 6866,
      "small": 6867,
      "n.": 6868,
      "val,Ġ": 6869,
      "nameĠorĠ": 6870,
      "endĠ=Ġ": 6871,
      "algorithm": 6872,
      "Condition": 6873,
      "ItemĠ": 6874,
      "Mdl": 6875,
      "predi": 6876,
      "optionĠ": 6877,
      "checkedĠ": 6878,
      "task_": 6879,
      "orderĠtoĠ": 6880,
      "history": 6881,
      "WriteĠ": 6882,
      "ersĠ": 6883,
      "tile": 6884,
      "complex": 6885,
      "))ĊĠĠĠĠreturnĠ": 6886,
      "CDR": 6887,
      "HelperĠ": 6888,
      "HTML": 6889,
      "\",ĊĠĠĠĠĠĠĠĠ\"": 6890,
      "Receiv": 6891,
      ")Ġ=Ġ": 6892,
      "),ĊĠĠĠĠĠĠĠĠĠĠĠĠĠĠĠĠ'": 6893,
      "1.Ġ": 6894,
      "dd": 6895,
      "sĠ-Ġ``": 6896,
      ":ĊĠĠĠĠĠĠĠĠĠĠĠĠĠĠĠĠĠĠĠĠ#Ġ": 6897,
      "...ĠĠĠĠĠĠĠĠĠ": 6898,
      ":Ġstr,Ġ": 6899,
      "':Ġ'string',ĊĠĠĠĠĠĠĠĠĠĠĠĠĠĠĠĠĠĠĠĠ'": 6900,
      "Allow": 6901,
      "hyper": 6902,
      "QueryĠ": 6903,
      "FORMAT": 6904,
      "Mess": 6905,
      "id:Ġ": 6906,
      "np.ndarray": 6907,
      "output_file": 6908,
      "converter": 6909,
      "registerĠ": 6910,
      "provider_": 6911,
      "pluginĠ": 6912,
      "latest": 6913,
      "Corp": 6914,
      "OsidSession": 6915,
      "'ĠisĠ": 6916,
      "1:Ġ": 6917,
      "TL": 6918,
      "bĠ=Ġ": 6919,
      "c(": 6920,
      "pĠinĠ": 6921,
      "reak": 6922,
      "extĠ": 6923,
      "cls(": 6924,
      "ply": 6925,
      "ĊĠĠ'": 6926,
      "clear_": 6927,
      "random_": 6928,
      "afterĠtheĠ": 6929,
      "ratio": 6930,
      ").ĊĊĠĠĠĠ": 6931,
      "-block": 6932,
      "NUL": 6933,
      "lvl": 6934,
      "mim": 6935,
      "mgr": 6936,
      "s):ĊĠĠĠĠ\"\"\"": 6937,
      "orĊĠĠĠĠĠĠĠĠ": 6938,
      "ite_": 6939,
      "formatter": 6940,
      "objective": 6941,
      "Ref": 6942,
      "3.0": 6943,
      "authorization": 6944,
      "callĠlast": 6945,
      "mostĠrecentĠcallĠlast": 6946,
      "TracebackĠ(": 6947,
      "44": 6948,
      "SN": 6949,
      "buf": 6950,
      "listĊĠĠĠĠĠĠĠĠ": 6951,
      "index(": 6952,
      "cade": 6953,
      "correspond": 6954,
      "Agent": 6955,
      "DynamoDBĠ": 6956,
      "TracebackĠ(mostĠrecentĠcallĠlast": 6957,
      "))Ġ": 6958,
      "f'": 6959,
      "goĠ": 6960,
      "sever": 6961,
      "name.": 6962,
      "beam": 6963,
      "isĠnotĠNoneĠandĠ": 6964,
      "positionĠ": 6965,
      "installedĠ": 6966,
      ",ĊĠĠĠĠĠĠĠĠĠĠĠĠĠĠĠĠĠĠĠĠĠĠĠĠĠĠĠĠĠĠĠĠĠĠĠ": 6967,
      "registry": 6968,
      "cwd": 6969,
      "'{}": 6970,
      "(?": 6971,
      "=2": 6972,
      "eq": 6973,
      "ĊĠĠĠĠ:rtype:Ġ": 6974,
      "':Ġ{ĊĠĠĠĠĠĠĠĠĠĠĠĠĠĠĠĠ'": 6975,
      ".ĊĠĠĠĠ:typeĠ": 6976,
      "assessment.": 6977,
      "branchĠ": 6978,
      "assĠthroughĠtoĠ": 6979,
      "learning.": 6980,
      "assĠthroughĠtoĠproviderĠ": 6981,
      "]ĠforĠ": 6982,
      "falseĠ": 6983,
      "recogn": 6984,
      "\"\"\"AĠ": 6985,
      "etree.": 6986,
      "ĊĠĠĠĠĠĠĠĠĠĠĠĠĠĠĠĠĠĠĠĠĠĠĠĠĠĠĠ": 6987,
      "min,Ġ": 6988,
      "submission": 6989,
      "genus_": 6990,
      "Create": 6991,
      "[:-1]": 6992,
      "green": 6993,
      "proxy.Proxy": 6994,
      "avoidĠ": 6995,
      "},ĊĠĠĠĠĠĠĠĠĠĠĠĠ'": 6996,
      "ĊĠĠĠĠĠĠĠĠĠĠĠĠ>>>Ġ": 6997,
      "dot(": 6998,
      "Inst": 6999,
      "AlsoĠ": 7000,
      "(ĊĠĠĠĠĠĠĠĠĠĠĠĠĠĠĠĠ\"": 7001,
      "Ġ(str):Ġ": 7002,
      "Bas": 7003,
      "Em": 7004,
      "\\Ċ": 7005,
      "idf": 7006,
      "):ĊĠĠĠĠĠĠ": 7007,
      "iterator": 7008,
      ".ĠĠIfĠ": 7009,
      "pixelĠ": 7010,
      "temperature": 7011,
      "=>Ġ": 7012,
      "uu": 7013,
      "abstra": 7014,
      "pute": 7015,
      "wever": 7016,
      "direct_": 7017,
      "single": 7018,
      "basestring": 7019,
      "89": 7020,
      "Lay": 7021,
      "vnetwork_": 7022,
      "åŃ": 7023,
      "s.ĊĠĠĠĠĠĠĠĠ:paramĠ": 7024,
      "comingĠ": 7025,
      "list[": 7026,
      "**kw": 7027,
      "phase": 7028,
      "REST": 7029,
      "queryset": 7030,
      "cloud": 7031,
      "attachment": 7032,
      "DoĠ": 7033,
      "N_": 7034,
      "bul": 7035,
      "ĊĠĠĠ": 7036,
      ":Ġ[REQUIRED]ĊĠĠĠĠĠĠĠĠĠĠĠĠ": 7037,
      "ofĠtheĠ``": 7038,
      "andĊĠĠĠĠ": 7039,
      "auto_": 7040,
      "Section": 7041,
      "mappedĠ": 7042,
      "bytes(": 7043,
      ":ĠstrĊĠĠĠĠĠĠĠĠ:paramĠ": 7044,
      "ambient": 7045,
      "coordinate": 7046,
      "periodĠ": 7047,
      "Content-": 7048,
      "REQUIREDĠ-Ġ": 7049,
      "čĊčĊĠĠĠĠĠĠĠĠ#ĠREQUIREDĠ-Ġ": 7050,
      "1Ġ-Ġ": 7051,
      "æľ": 7052,
      "mod_": 7053,
      "scat": 7054,
      "ready": 7055,
      "join(self.": 7056,
      "dependenc": 7057,
      "\"\"\"CreateĠ": 7058,
      "BR": 7059,
      "Hierarchy": 7060,
      "M_": 7061,
      "Ã©": 7062,
      "ine_": 7063,
      "namespaceĠ": 7064,
      "edĠwithĠ": 7065,
      ":ĊĠĠĠĠĠĠĠĠĠĠĠĠtry:ĊĠĠĠĠĠĠĠĠĠĠĠĠĠĠĠĠ": 7066,
      "ric": 7067,
      ":ĊĠĠĠĠĠĠĠĠĠĠĠĠĠĠĠĠpass": 7068,
      "class(": 7069,
      "host_": 7070,
      "size_": 7071,
      "messages": 7072,
      "command,Ġ": 7073,
      "AND": 7074,
      "expected": 7075,
      "axis=1": 7076,
      "computeĠ": 7077,
      "access_token": 7078,
      "comparison": 7079,
      "Relation": 7080,
      "Target": 7081,
      "CorpNum": 7082,
      "0ĠandĠ": 7083,
      "\\r": 7084,
      "assetĠ": 7085,
      "able_": 7086,
      "Returns:": 7087,
      "create(": 7088,
      "state_": 7089,
      "cmd_": 7090,
      "occurred": 7091,
      "(msg": 7092,
      "\"\"\"ParseĠ": 7093,
      "cedĠ": 7094,
      "Ġ=Ġre.": 7095,
      "_idx": 7096,
      "__init__": 7097,
      "archive_": 7098,
      "ERS": 7099,
      "Location": 7100,
      "``ĊĠĠĠĠĠĠĠĠarg:ĠĠĠĠ": 7101,
      "course_": 7102,
      "caseĠofĠ": 7103,
      "[REQUIRED]": 7104,
      "\".join(": 7105,
      "aa": 7106,
      "enableĠ": 7107,
      "assessmentĠ": 7108,
      "``.ĊĊĠĠĠĠĠĠĠĠ": 7109,
      "The": 7110,
      "typeĠ==Ġ": 7111,
      "dict['": 7112,
      "args:Ġ": 7113,
      "indexĠ=Ġ": 7114,
      "specificationĠ": 7115,
      "checksum": 7116,
      "match.group": 7117,
      "state.": 7118,
      ",ĠandĠtheĠ": 7119,
      "cmdĠ=Ġ": 7120,
      "background": 7121,
      "'ĊĠĠĠĠ>>>Ġ": 7122,
      ")}": 7123,
      "kindĠ": 7124,
      "mt": 7125,
      "sĠto": 7126,
      "forĠanĠ": 7127,
      "abel": 7128,
      ":ĊĠĠĠĠĠĠĠĠĠĠĠĠ'": 7129,
      "more": 7130,
      "ĠinĠenumerate(": 7131,
      "CouldĠ": 7132,
      "verboseĠ": 7133,
      "status_code": 7134,
      "IPĠaddres": 7135,
      "walk": 7136,
      "eas": 7137,
      "pingĠ": 7138,
      "dev_": 7139,
      "toĠthisĠ": 7140,
      "',ĠFalse": 7141,
      "log(": 7142,
      "commitĠ": 7143,
      "built": 7144,
      "layout": 7145,
      "SIZ": 7146,
      "snap": 7147,
      "Metadata": 7148,
      "FROMĠ": 7149,
      "ice": 7150,
      "serial": 7151,
      "setsĠ": 7152,
      ")ĊĠĠĠĠĠĠĠĠĠĠĠĠelifĠ": 7153,
      "nameĠisĠ": 7154,
      "Expression": 7155,
      "active_": 7156,
      "table_name": 7157,
      "//Ġ": 7158,
      "elseĠNone": 7159,
      "syntax": 7160,
      "write('": 7161,
      "`.\"\"\"ĊdefĠ": 7162,
      "cv": 7163,
      "rateĠ": 7164,
      "s\":Ġ": 7165,
      ",Ġ[": 7166,
      "=ĠNone": 7167,
      "linesĠ=Ġ": 7168,
      "valueĠandĠ": 7169,
      "creatingĠ": 7170,
      "url:Ġ": 7171,
      "interpol": 7172,
      "iteritems(": 7173,
      "wrapperĠ": 7174,
      "monitor": 7175,
      "TrueĠifĠtheĠ": 7176,
      "sĠfromĠaĠ": 7177,
      "=self._proxy": 7178,
      "vowel": 7179,
      "Line": 7180,
      "HEAD": 7181,
      "algorithmĠ": 7182,
      "%Y": 7183,
      "Hy": 7184,
      "mas": 7185,
      "sp.": 7186,
      "ym": 7187,
      "):ĊĠĠ": 7188,
      ".ĊĠĠĠĠĠĠ": 7189,
      ".ĠIfĠyouĠ": 7190,
      "linkĠ": 7191,
      "server.": 7192,
      "f.read": 7193,
      "(ĊĠĠĠĠĠĠĠĠĠĠĠĠĠĠĠĠ'": 7194,
      "cfg.": 7195,
      "pkg": 7196,
      "CanĠbeĠ": 7197,
      "..Ġcode-block": 7198,
      ")/": 7199,
      "7,Ġ": 7200,
      ",Ġ_": 7201,
      "didĠ": 7202,
      "idden": 7203,
      "params[\"": 7204,
      ">Ġ1": 7205,
      "ipĠ": 7206,
      "):ĊĠĠĠĠĠĠĠĠĠĠĠĠforĠ": 7207,
      "catalog_session": 7208,
      "cum": 7209,
      "ga": 7210,
      "midd": 7211,
      "w_": 7212,
      "ĊĠĠĠĠĠĠĠĠ(": 7213,
      "orĊĠĠĠĠĠĠĠĠĠĠĠĠĠĠĠĠ``": 7214,
      "forceĠ": 7215,
      "anĠemptyĠ": 7216,
      "ĊĠĠĠĠĠĠĠĠĠĠĠĠĠĠĠĠĠĠĠĠĠĠ": 7217,
      "readData": 7218,
      "below": 7219,
      "memb": 7220,
      "proxy=self._proxy": 7221,
      "Unimplemented": 7222,
      "repeat": 7223,
      "Mark": 7224,
      "belong": 7225,
      "(h": 7226,
      "(k": 7227,
      ")Ċĉĉĉ": 7228,
      "-2": 7229,
      "ìĹ": 7230,
      "sĠwhichĠ": 7231,
      "Ġ=Ġ{}": 7232,
      "netĠ": 7233,
      "'Ġ:Ġ": 7234,
      "ĊĠĠĠĠĠĠĠĠifĠlen(": 7235,
      "resource_id": 7236,
      "failureĠ": 7237,
      "original": 7238,
      "split_": 7239,
      "median": 7240,
      ".strip": 7241,
      "DI": 7242,
      "s\",Ġ": 7243,
      "splitĠ": 7244,
      "\"\"\"Ċĉ": 7245,
      "obj_": 7246,
      "figure": 7247,
      "_sum": 7248,
      "signatureĠ": 7249,
      "ref_": 7250,
      "validator": 7251,
      "thenĠtheĠ": 7252,
      "ctypes.": 7253,
      "Alignment": 7254,
      "Metadata.is": 7255,
      ".p": 7256,
      "p(": 7257,
      "imagesĠ": 7258,
      "loginĠ": 7259,
      "s(\"": 7260,
      "ipv6": 7261,
      "ibl": 7262,
      "versionĠofĠ": 7263,
      "output_dir": 7264,
      "outĠofĠ": 7265,
      "Element(\"": 7266,
      "\")ĊĊĠĠĠĠĠĠĠĠ": 7267,
      "`.ĊĊĠĠĠĠĠĠĠĠ": 7268,
      "gridĠ": 7269,
      "mapĠ": 7270,
      "))ĊĠĠĠĠĠĠĠĠelse:ĊĠĠĠĠĠĠĠĠĠĠĠĠ": 7271,
      "s.\"\"\"ĊdefĠ_": 7272,
      "documentationĠ": 7273,
      ")Ġ->ĠNone": 7274,
      "free": 7275,
      "thresholdĠ": 7276,
      "representedĠ": 7277,
      "..Ġcode-block::Ġ": 7278,
      "Custom": 7279,
      "rand": 7280,
      "ĊĠĠĠĠĠĠĠĠĠĠĠĠself._": 7281,
      "nameĊĠĠĠĠĠĠĠĠ": 7282,
      "veryĠ": 7283,
      "dataĠisĠ": 7284,
      "):ĊĠĠĠĠĠĠĠĠĠĠĠĠself.": 7285,
      "licen": 7286,
      "stopĠ": 7287,
      "{0}'.format(": 7288,
      "family_": 7289,
      "certainĠ": 7290,
      "SecurityGroup": 7291,
      "(filename": 7292,
      "Go": 7293,
      "Norm": 7294,
      "=Ġself._": 7295,
      "andĠisĠ": 7296,
      "s=\"": 7297,
      "weĠhaveĠ": 7298,
      "simple": 7299,
      "operatorĠ": 7300,
      "encryptionĠ": 7301,
      ":raisesĠ": 7302,
      "isĠnotĠNone:čĊĠĠĠĠĠĠĠĠĠĠĠĠdata[\"": 7303,
      "1d": 7304,
      "Snapshot": 7305,
      "],": 7306,
      "bill": 7307,
      "çĶ": 7308,
      "ofĠ`": 7309,
      "ationsĠ": 7310,
      "sessions.": 7311,
      ":ĠstrĠorĠ": 7312,
      "host,Ġ": 7313,
      "courseĠ": 7314,
      "readDataInstance": 7315,
      "(func": 7316,
      "windowĠ": 7317,
      "chro": 7318,
      "trun": 7319,
      "values.": 7320,
      "''.join(": 7321,
      "createĠtheĠ": 7322,
      ".ĊĠĠĠĠ@paramĠ": 7323,
      "identity": 7324,
      "math.": 7325,
      "include_": 7326,
      "[k]": 7327,
      "')ĠasĠf": 7328,
      "_sizeĠ=Ġ": 7329,
      "0Ġ=Ġ": 7330,
      "['name']": 7331,
      "commentĠ": 7332,
      ")ĊĠĠĠĠĠĠĠĠĠĠĠĠĠĠĠĠself.": 7333,
      "os.path.dir": 7334,
      "summar": 7335,
      ",ĊĠĠĠĠĠĠĠĠĠĠĠĠĠĠĠĠĠĠĠĠĠĠĠĠĠĠĠĠĠĠĠĠĠĠĠĠĠĠ": 7336,
      "_list.append(": 7337,
      "Interval": 7338,
      "New": 7339,
      "browser": 7340,
      "dateĠ=Ġ": 7341,
      "str,Ġ": 7342,
      "allow_": 7343,
      "urlĠ+Ġ": 7344,
      "Handle": 7345,
      "29": 7346,
      "NC": 7347,
      "SH": 7348,
      "y=": 7349,
      "deta": 7350,
      "erĠofĠtheĠ": 7351,
      "esĊĠĠĠĠĠĠĠĠ": 7352,
      "ighe": 7353,
      "called": 7354,
      "Remote": 7355,
      "index.": 7356,
      "phra": 7357,
      "pub.": 7358,
      "fluxĠ": 7359,
      "Char": 7360,
      "pyĠimportĠ": 7361,
      "choo": 7362,
      "expected_": 7363,
      "repository_id": 7364,
      "astropy.": 7365,
      "yield": 7366,
      "one_": 7367,
      "())ĊĠĠĠĠĠĠĠĠ": 7368,
      "Returns:ĊĠĠĠĠĠĠ": 7369,
      "thisĠfunctionĠ": 7370,
      "allĠofĠtheĠ": 7371,
      "``ĠnotĠfoundĊĠĠĠĠĠĠĠĠraise:ĠĠNullArgumentĠ-Ġ``": 7372,
      "Subnet": 7373,
      "deployment": 7374,
      "securesystemslib.": 7375,
      "lahn_": 7376,
      "Relationship": 7377,
      ".objects.": 7378,
      "sequ": 7379,
      ",ĠyouĠ": 7380,
      "noise": 7381,
      "ĊĉĉĠĠĠĠ": 7382,
      "underĠ": 7383,
      "DataBase": 7384,
      "scaleĠ": 7385,
      "representingĠ": 7386,
      "dtype=np.": 7387,
      "lessĠthanĠ": 7388,
      ".ĊĠĠĠĠĠĠĠĠĠĠĠĠĠĠĠĠ": 7389,
      "s,ĊĠĠĠĠĠĠĠĠĠĠĠĠ": 7390,
      "ĊĊĠĠĠĠĠĠĠĠRaises:ĊĠĠĠĠĠĠĠĠĠĠĠĠ": 7391,
      "mac": 7392,
      "string_type": 7393,
      "lowerĠ": 7394,
      "---------": 7395,
      ").ĊĠĠĠĠĠĠĠĠĠĠĠĠ": 7396,
      "asyncĠdefĠ": 7397,
      "bra": 7398,
      "tic": 7399,
      ")Ġ#Ġ": 7400,
      "cketĠ": 7401,
      "ed.Ġ": 7402,
      "data_type": 7403,
      "ĊĠĠĠĠĠĠĠĠĠĠĠĠĠĠĠĠĠĠĠĠĠĠĠ": 7404,
      "...ĊĠĠĠĠĠĠĠĠ": 7405,
      "grup": 7406,
      "io_": 7407,
      "libĠ": 7408,
      "connection.": 7409,
      "GETĠ": 7410,
      "shift": 7411,
      "]ĊĊĠĠĠĠ": 7412,
      "href": 7413,
      "yy": 7414,
      "(self,Ġvalue": 7415,
      "sĠforĠeachĠ": 7416,
      "storage_": 7417,
      "freq": 7418,
      "transition": 7419,
      "_TYPE": 7420,
      "ofĠthe": 7421,
      "str(self.": 7422,
      "None\"\"\"ĊdefĠ": 7423,
      "defaultsĠtoĠ": 7424,
      "POSTĠ": 7425,
      "appliedĠ": 7426,
      "Environment": 7427,
      "._my_map['": 7428,
      "reset": 7429,
      "ĊĠĠĠĠĠĠĠĠĠĠĠĠĠĠĠ": 7430,
      "constant": 7431,
      "``false": 7432,
      "s[name": 7433,
      "),Ġ'": 7434,
      ".ĊĠĠĠĠĠĠĠĠĠĠĠĠIfĠ": 7435,
      "'))ĊĠĠĠĠ": 7436,
      "Type:Ġ": 7437,
      "čĊĠĠĠĠ'''": 7438,
      "parent.": 7439,
      "Point": 7440,
      "factorĠ": 7441,
      "',ĊĠĠĠĠĠĠĠĠ'": 7442,
      "IB": 7443,
      "S3": 7444,
      "blo": 7445,
      "):ĠĠ#Ġ": 7446,
      "ablyĠ": 7447,
      "white": 7448,
      "log('": 7449,
      "username,Ġ": 7450,
      "+=Ġ\"": 7451,
      "Comment": 7452,
      "tree_": 7453,
      "ANDĠ": 7454,
      "continu": 7455,
      "AnĠattributeĠ": 7456,
      "analyz": 7457,
      "startswith(\"": 7458,
      "switch": 7459,
      "Delete": 7460,
      "accordingĠtoĠ": 7461,
      "summary": 7462,
      "ãĢĤ": 7463,
      "0ĊĠĠĠĠĠĠĠĠ": 7464,
      "ìĽ": 7465,
      ",Ġvalue": 7466,
      "enroll": 7467,
      "theĠnumberĠofĠ": 7468,
      "entity_": 7469,
      "confirm": 7470,
      "user,Ġ": 7471,
      "weĠareĠ": 7472,
      "store.": 7473,
      "List[": 7474,
      "``ĊĠĠĠĠĠĠĠĠraise:ĠĠNotFoundĠ-Ġ``": 7475,
      "``ĊĠĠĠĠĠĠĠĠreturn:Ġ(osid.": 7476,
      "Interface": 7477,
      "takenĠ": 7478,
      "github.com/": 7479,
      "IllegalStateĠ": 7480,
      "ìĽĲ": 7481,
      "(None": 7482,
      ".org/": 7483,
      ":\\n": 7484,
      "nick": 7485,
      "s3": 7486,
      "inf": 7487,
      "sĠwillĠ": 7488,
      "cellĠ": 7489,
      "ptim": 7490,
      "com/": 7491,
      "persist": 7492,
      "'ĠifĠ": 7493,
      "instanti": 7494,
      "user'sĠ": 7495,
      "\"Ġ%": 7496,
      "fileĠpath": 7497,
      "rowsĠ": 7498,
      "dispatch": 7499,
      "Dataset": 7500,
      "solver": 7501,
      "{0}\".format(": 7502,
      "necessary": 7503,
      "delimiter": 7504,
      "(l": 7505,
      "1ĊĠĠĠĠ": 7506,
      "28": 7507,
      "Mer": 7508,
      "Pol": 7509,
      "u_": 7510,
      "ìł": 7511,
      "ĠĠĠĠĠĠĠĠĠĠĠĠĠĠĠ": 7512,
      "ename": 7513,
      "isĊĠĠĠĠ": 7514,
      "()ĊĠĠĠĠĠĠĠĠĠĠĠĠifĠ": 7515,
      "betweenĠtheĠ": 7516,
      "split('": 7517,
      "shapeĠ=Ġ": 7518,
      "qualifi": 7519,
      "veni": 7520,
      "ard_": 7521,
      "team": 7522,
      "person": 7523,
      "ALL": 7524,
      "FailedĠtoĠ": 7525,
      "Ġ=Ġself._get_": 7526,
      "OrderedDict": 7527,
      ")ĊĠĠ": 7528,
      "34": 7529,
      "37": 7530,
      "etĠ=Ġ": 7531,
      "s):ĊĠĠĠĠĠĠĠĠ": 7532,
      "sĠitĠ": 7533,
      "``ĠĠ": 7534,
      "esĠthatĠ": 7535,
      "dataĠtype": 7536,
      "\"ĠandĠ": 7537,
      "states": 7538,
      "append(\"": 7539,
      "Args:ĊĠĠĠĠĠĠ": 7540,
      "cachedĠ": 7541,
      "accessĠtheĠ": 7542,
      "help=\"": 7543,
      "catalog_id": 7544,
      "ownĠ": 7545,
      "Note:Ġ": 7546,
      "micro": 7547,
      "onceĠ": 7548,
      "sĠin": 7549,
      "etag": 7550,
      "()ĊĠĠĠĠĠĠĠĠ#Ġ": 7551,
      "presentĠ": 7552,
      "lookĠ": 7553,
      "Priv": 7554,
      "Definition": 7555,
      "():ĊĠĠĠĠĠĠĠĠĠĠĠĠĠĠĠĠ": 7556,
      "WHE": 7557,
      "re-": 7558,
      "lict": 7559,
      "inĠself._": 7560,
      "_id_": 7561,
      "best_": 7562,
      "fileĠisĠ": 7563,
      "**kwargs):ĊĠĠĠĠĠĠĠĠ\"\"\"ĊĠĠĠĠĠĠĠĠ": 7564,
      "=False):ĊĠĠĠĠĠĠĠĠ\"\"\"": 7565,
      "]ĊĠĠĠĠĠĠĠĠelse:ĊĠĠĠĠĠĠĠĠĠĠĠĠ": 7566,
      "graphĠ": 7567,
      "Child": 7568,
      "Logg": 7569,
      "integerĊĠĠĠĠ:paramĠ": 7570,
      "exc:`": 7571,
      "bundle": 7572,
      ".ĠForĠexample:ĊĠĠĠĠĠĠĠĠĠĠĠĠ'": 7573,
      "necessaryĠ": 7574,
      "AnĠattributeĠofĠtypeĠ": 7575,
      "%m": 7576,
      "-3": 7577,
      "blob": 7578,
      "tor": 7579,
      "æķ": 7580,
      "):Ċĉ": 7581,
      "regularĠ": 7582,
      "s=False": 7583,
      "message_": 7584,
      "UnableĠtoĠ": 7585,
      "NOTĠ": 7586,
      "ignored": 7587,
      "array_like": 7588,
      "\",ĊĠĠĠĠĠĠĠĠĠĠĠĠ\"": 7589,
      "':ĊĠĠĠĠĠĠĠĠĠĠĠĠĠĠĠĠĠĠĠĠ": 7590,
      "1ĠandĠ": 7591,
      "S.": 7592,
      "SD": 7593,
      "eredĠ": 7594,
      "pg": 7595,
      "realĠ": 7596,
      "erĊĠĠĠĠĠĠĠĠ": 7597,
      "dest_": 7598,
      "comma": 7599,
      "raised": 7600,
      "overwrite": 7601,
      "model.calc_": 7602,
      "measurement": 7603,
      "Ne": 7604,
      "Sol": 7605,
      "T,Ġ": 7606,
      "dct": 7607,
      "strf": 7608,
      "name)": 7609,
      "']Ġ==Ġ'": 7610,
      "boundĠ": 7611,
      "respond": 7612,
      "\"ĠorĠ": 7613,
      "geneĠ": 7614,
      "info.": 7615,
      "!=Ġ'": 7616,
      "storageĠ": 7617,
      "s[\"10.7554/eLife.": 7618,
      "taken": 7619,
      "overrideĠ": 7620,
      "placeholder": 7621,
      "Oper": 7622,
      "binĠ": 7623,
      "rath": 7624,
      "sĊĠĠĠĠĠĠĠĠ\"\"\"ĊĠĠĠĠĠĠĠĠ": 7625,
      "see": 7626,
      "deg": 7627,
      "etype": 7628,
      "copy_": 7629,
      "ifĠ``": 7630,
      "inĠenumerate(": 7631,
      "appĠ": 7632,
      "dict__": 7633,
      "containsĠtheĠ": 7634,
      "onlyĠoneĠ": 7635,
      "recipient": 7636,
      "OL": 7637,
      "andĠaĠ": 7638,
      ".ĠYouĠcanĠ": 7639,
      "types.": 7640,
      "s()ĊĠĠĠĠĠĠĠĠ": 7641,
      "Error:ĊĠĠĠĠĠĠĠĠĠĠĠĠ": 7642,
      "sent": 7643,
      "gradi": 7644,
      "sĠareĠnotĠ": 7645,
      "flu.": 7646,
      "fullyĠ": 7647,
      "selector": 7648,
      "Posit": 7649,
      "dest='": 7650,
      "equipamento": 7651,
      "colour": 7652,
      "Engine": 7653,
      "(inĠ": 7654,
      "=(": 7655,
      "Djang": 7656,
      "ruleĠ": 7657,
      "insertĠ": 7658,
      "ensure": 7659,
      "\"\"\"LoadĠ": 7660,
      "stringĊĠĠĠĠĠĠĠĠ": 7661,
      "rowĠinĠ": 7662,
      "attemptĠ": 7663,
      "subscription": 7664,
      "ffi": 7665,
      "Ã¡": 7666,
      "ĊĠĠĠĠĠĠĠĠĠĠĠĠ-Ġ": 7667,
      "and/": 7668,
      "loadingĠ": 7669,
      "db_session": 7670,
      "hydpyĠimportĠ": 7671,
      "UnicodeĠ": 7672,
      "configuredĠ": 7673,
      "increment": 7674,
      "InvalidArgument('": 7675,
      "'ĊĠĠĠĠĠĠĠĠĠĠĠĠĠĠĠĠĠĠĠĠĠĠĠĠĠĠĠĠĠĠĠĠ": 7676,
      "CC": 7677,
      "ESĠ": 7678,
      "ĊĠĠĠĠ:returns:Ġ": 7679,
      "prov": 7680,
      "key.": 7681,
      "Ċĉĉ\"\"\"Ċĉĉ": 7682,
      "),Ġ(": 7683,
      "results": 7684,
      "ĊĠĠĠĠĠĠĠĠ:paramĠintĠ": 7685,
      "labelĠ": 7686,
      "ofĊĠĠĠĠ": 7687,
      "alongĠ": 7688,
      "asynchronousĠ": 7689,
      "dictionariesĠ": 7690,
      "'):ĊĠĠĠĠĠĠĠĠ": 7691,
      "OB": 7692,
      "Wid": 7693,
      "ns_": 7694,
      "rd": 7695,
      "vance": 7696,
      "allen": 7697,
      "unlessĠ": 7698,
      "listĠ=Ġ": 7699,
      "row,Ġ": 7700,
      "frame.": 7701,
      "sqrt(": 7702,
      "socketĠ": 7703,
      "íļĮìĽĲ": 7704,
      "(item": 7705,
      ":exc:`": 7706,
      "Vol": 7707,
      "ĊĠĠĠĠĠĠĠĠĠĠĠĠ#": 7708,
      "aĠ``": 7709,
      "conf.": 7710,
      "edĠbyĠtheĠ": 7711,
      "\"\"\"ĊĠĠ": 7712,
      "()ĊĠĠĠĠifĠ": 7713,
      "sĠ=Ġ['": 7714,
      "',Ġ'-": 7715,
      "ĊĠĠĠĠĠĠ|": 7716,
      "ResourceĠ": 7717,
      "passe": 7718,
      "provide": 7719,
      "OutputĠ": 7720,
      "CouldĠnotĠ": 7721,
      ").ĊĊĠĠĠĠĠĠĠĠ": 7722,
      "All": 7723,
      "Json": 7724,
      "VPC": 7725,
      "acl": 7726,
      "dm": 7727,
      "ioĠ": 7728,
      ",Ġ*": 7729,
      ",Ġ1": 7730,
      "valu": 7731,
      ",ĊĠĠĠĠĠĠĠĠĠĠĠĠĠĠĠĠĠĠĠĠĠĠĠĠĠĠĠĠĠĠĠĠĠĠ": 7732,
      "simplyĠ": 7733,
      "log.info(\"": 7734,
      "Statu": 7735,
      "(default:Ġ": 7736,
      "(e.g.Ġ": 7737,
      "Tree": 7738,
      "mi": 7739,
      "ĊĠĠĠĠĠĠĠĠĠĠĠĠĠĠĠĠĠĠĠĠ\"": 7740,
      "error('": 7741,
      "log.debug(\"": 7742,
      ",y": 7743,
      "sĠcanĠbeĠ": 7744,
      "ĊĠĠĠĠexceptĠ": 7745,
      "_id':Ġ": 7746,
      "s:ĠlistĠofĠ": 7747,
      "NodeĠ": 7748,
      "weĠcanĠ": 7749,
      "occ": 7750,
      "MOC": 7751,
      "CDF": 7752,
      "maximumĠnumberĠofĠ": 7753,
      "VERSION": 7754,
      "ObjectiveBank": 7755,
      "Execut": 7756,
      "ComputeĠ": 7757,
      "Reference": 7758,
      "os.path.split": 7759,
      "black": 7760,
      "rn": 7761,
      "th_": 7762,
      "orĠtheĠ": 7763,
      "inĠanĠ": 7764,
      "args[0]": 7765,
      "ĊĠĠĠĠĠĠĠĠĠĠĠĠĠĠĠĠĠĠĠĠĠĠĠĠ#Ġ": 7766,
      "+Ġ1": 7767,
      "should": 7768,
      "INĠ": 7769,
      "handler.": 7770,
      ")Ġ--TheĠ": 7771,
      "sync": 7772,
      "Plug": 7773,
      "GivenĠaĠ": 7774,
      "appear": 7775,
      "d['": 7776,
      "âĶ": 7777,
      "in-": 7778,
      "alarm": 7779,
      "notĠfoundĠ": 7780,
      "numpy": 7781,
      "0.1": 7782,
      "Parameters:": 7783,
      "docs.": 7784,
      "jobĠ": 7785,
      "FIL": 7786,
      "UTC": 7787,
      "insert(": 7788,
      "UpdateĠtheĠ": 7789,
      "GĠ": 7790,
      "s)ĊĊĠĠĠĠĠĠĠĠ": 7791,
      "æĪ": 7792,
      "reportĠ": 7793,
      "withĠanĠ": 7794,
      "written": 7795,
      "column_": 7796,
      "ift.": 7797,
      "pointsĠ": 7798,
      "equation": 7799,
      "analysist": 7800,
      "_SCHEMA": 7801,
      "/{": 7802,
      "Ab": 7803,
      "Deta": 7804,
      "b,Ġ": 7805,
      "gzip": 7806,
      "v,Ġ": 7807,
      "ëĭ": 7808,
      "\"\"\"Add": 7809,
      "(self,": 7810,
      "listĊĠĠĠĠĠĠĠĠĠĠĠĠ": 7811,
      "):ĊĠĠĠĠĠĠĠĠ\"\"\"GetsĠtheĠ": 7812,
      "raiseĠRuntime": 7813,
      "omial": 7814,
      "graph.": 7815,
      "select_": 7816,
      ":py:obj:`": 7817,
      "AGE_": 7818,
      "radiu": 7819,
      "'.Ġ": 7820,
      "(key,Ġ": 7821,
      "))ĊĠĠĠĠĠĠĠĠifĠ": 7822,
      "+\"": 7823,
      "WARN": 7824,
      "dst": 7825,
      "|ĊĠĠĠĠĠĠ|": 7826,
      "entityĠ": 7827,
      "upĠtheĠ": 7828,
      "\"\"\"ĊdefĠget": 7829,
      "))ĊĊĠĠĠĠ#Ġ": 7830,
      "ĊĠĠĠĠĠĠĠĠifĠself._": 7831,
      "parameterstep": 7832,
      "Copy": 7833,
      "codeĠ=Ġ": 7834,
      "logger.exception": 7835,
      "selectĠ": 7836,
      "\"\"\"Dele": 7837,
      "ET.Element(\"": 7838,
      "ìĦľ": 7839,
      "åĽ": 7840,
      "group_id": 7841,
      ",Ġ'r": 7842,
      "stringĠtoĠ": 7843,
      "representation": 7844,
      "Activity": 7845,
      "A,Ġ": 7846,
      "[4": 7847,
      "nullĠ": 7848,
      "ĊĠĠĠĠĠĠĠĠisĠ": 7849,
      "ĊĠĠĠĠ\"\"\"ĊĠĠĠĠ#Ġ": 7850,
      "generic_": 7851,
      "task.": 7852,
      "0Ġ*Ġ": 7853,
      "Also": 7854,
      "[i]Ġ=Ġ": 7855,
      "2:Ġ": 7856,
      "UID": 7857,
      ":ĊĠĠĠĠĠĠĠĠĠĠĠĠĠĠĠĠself._": 7858,
      "%s\",Ġ": 7859,
      "[],Ġ": 7860,
      "clip": 7861,
      "deletedĠ": 7862,
      "COMM": 7863,
      "SeeĠalso": 7864,
      "cluster_": 7865,
      "authenticationĠ": 7866,
      "code,Ġxml": 7867,
      "'ĠandĠ'": 7868,
      "sheet": 7869,
      "'ĊĊĠĠĠĠ": 7870,
      "'ĊĠĠĠĠĠĠĠĠ>>>Ġ": 7871,
      "BĠ": 7872,
      "ases": 7873,
      "h5": 7874,
      "tk.": 7875,
      "theĠfirstĠ": 7876,
      "consid": 7877,
      "InstanceĠ": 7878,
      ",ĊĠĠĠĠĠĠĠĠĠĠĠĠĠĠĠ": 7879,
      "callsign": 7880,
      ",ĊĠĠĠĠĠĠĠĠĠĠĠĠĠĠĠĠĠĠĠĠ\"": 7881,
      "attributesĠ": 7882,
      "energ": 7883,
      "bufferĠ": 7884,
      "--------------------------------": 7885,
      "consideredĠ": 7886,
      "lvl=": 7887,
      "\").": 7888,
      "Git": 7889,
      "SK": 7890,
      "thet": 7891,
      "ĊĠĠĠĠtry:ĊĠĠĠĠĠĠĠĠ": 7892,
      "\"\"\"SetĠ": 7893,
      "\"\"\"Remov": 7894,
      "name\":Ġ\"": 7895,
      "defaultĠ=Ġ": 7896,
      "dirĠ=Ġ": 7897,
      "portion": 7898,
      "[]ĊĠĠĠĠĠĠĠĠ": 7899,
      "label_": 7900,
      "+=Ġ'": 7901,
      "insert_": 7902,
      "guid": 7903,
      "sal": 7904,
      "sun": 7905,
      "chan": 7906,
      "live": 7907,
      "'])ĊĠĠĠĠĠĠĠĠ": 7908,
      ")).": 7909,
      "RequestĠ": 7910,
      "dict,Ġ": 7911,
      "`ĠforĠ": 7912,
      "ĊĠĠĠĠĠĠĠĠĠĠĠĠĠĠĠĠĠĠĠĠĠĠĠĠĠĠĠĠĠĠĠ": 7913,
      "areĊĠĠĠĠĠĠĠĠ": 7914,
      "NullArgument": 7915,
      "dependingĠ": 7916,
      "calculatedĠ": 7917,
      "given,Ġ": 7918,
      "requests.exceptions.": 7919,
      "src_": 7920,
      "apply": 7921,
      "Storage": 7922,
      "UĠ": 7923,
      "ili": 7924,
      "omĠ": 7925,
      "uint": 7926,
      "|ĠĠĠĠ": 7927,
      "s.append('": 7928,
      "peer": 7929,
      "argĠ": 7930,
      "profileĠ": 7931,
      "()ĊĠĠĠĠĠĠĠĠĠĠĠĠĠĠĠĠĠĠĠĠ": 7932,
      ")ĊĠĠĠĠĠĠĠĠĠĠĠĠself._": 7933,
      "sĊĠĠĠĠĠĠĠĠ#Ġ": 7934,
      "0.5,Ġ": 7935,
      "methodĠisĠ": 7936,
      ")ĠforĠxĠinĠ": 7937,
      "\":\"": 7938,
      "manifest": 7939,
      "mix": 7940,
      "threeĠ": 7941,
      "ctx.": 7942,
      "ravel": 7943,
      "resid": 7944,
      "pos_": 7945,
      "ized_": 7946,
      ".ĊĊĠĠĠĠ>>>Ġ": 7947,
      "functionĊĠĠĠĠĠĠĠĠ": 7948,
      "model_name": 7949,
      "weightĠ": 7950,
      ":ĊĠĠĠĠĠĠĠĠĠĠĠĠĠĠĠĠĠĠĠĠifĠ": 7951,
      "intĠorĠ": 7952,
      "removed": 7953,
      "service_": 7954,
      "ED_": 7955,
      "TYPE),ĊĠĠĠĠĠĠĠĠĠĠĠĠĠĠĠĠ'": 7956,
      "ByĠdefault": 7957,
      "screen": 7958,
      "\")ĊĠĠĠĠĠĠĠĠĠĠĠĠĠĠĠĠ": 7959,
      "SendĠ": 7960,
      "Util": 7961,
      "ner": 7962,
      "pra": 7963,
      "atelyĠ": 7964,
      "ifĠ`": 7965,
      "ingĠofĠ": 7966,
      "res_": 7967,
      "agentĠ": 7968,
      "anĠinstanceĠofĠ": 7969,
      "statementĠ": 7970,
      "ThisĠmethodĠisĠ": 7971,
      "delt": 7972,
      "merge_": 7973,
      "Address": 7974,
      "compatibil": 7975,
      "instrument": 7976,
      "#usuallyĠ": 7977,
      "\"\"\"Retriev": 7978,
      "s__": 7979,
      "0,Ġ0,Ġ": 7980,
      "flask": 7981,
      "KeywordĠ": 7982,
      "base.": 7983,
      ":rtype:Ġdict": 7984,
      "Module": 7985,
      "scheme": 7986,
      "_url,Ġ": 7987,
      "asset_content": 7988,
      "makeĠsureĠ": 7989,
      "Required": 7990,
      "s:ĠlistĊĠĠĠĠ:paramĠ": 7991,
      ":ĊĠĠĠĠĠĠĠĠĠĠĠĠĠĠĠĠĠĠĠĠĠĠĠĠĠĠĠĠĠĠĠĠ": 7992,
      "Lim": 7993,
      "[idx": 7994,
      "_1": 7995,
      "bn": 7996,
      "ge_": 7997,
      "s='": 7998,
      "è¿": 7999,
      "ones": 8000,
      "\"\"\"ĊdefĠadd_": 8001,
      "proficienc": 8002,
      "typesĠ": 8003,
      "))čĊĠĠĠĠĠĠĠĠ": 8004,
      "curv": 8005,
      "parameters.": 8006,
      "bin_": 8007,
      "lyingĠ": 8008,
      "PIPE": 8009,
      "stepĠ": 8010,
      "IPv6": 8011,
      "199": 8012,
      "2',Ġ'": 8013,
      "DA": 8014,
      "Pat": 8015,
      "ual_": 8016,
      "seek": 8017,
      "ids": 8018,
      "id':Ġ": 8019,
      "tryĠtoĠ": 8020,
      "ĊĠĠĠĠĠĠĠĠĠĠĠĠĠĠĠĠĠĠĠĠĠĠĠĠifĠ": 8021,
      "final_": 8022,
      "belowĠ": 8023,
      "var.": 8024,
      "genom": 8025,
      "workĠ": 8026,
      "Ġ=Ġnp.zeros(": 8027,
      "printĠ'": 8028,
      "axis=0": 8029,
      "evelo": 8030,
      "#ĠĠĠĠĠ": 8031,
      "itter": 8032,
      "header.": 8033,
      "scopeĠ": 8034,
      "original_": 8035,
      "PathĠtoĠ": 8036,
      "================================": 8037,
      "concaten": 8038,
      "analysistype": 8039,
      "(3": 8040,
      "Break": 8041,
      "PE_": 8042,
      "ds": 8043,
      "lgc": 8044,
      "zĠ": 8045,
      "ifĠyouĠ": 8046,
      "``OsidSession": 8047,
      "ilyĠ": 8048,
      "\"\"\"ĊasyncĠdefĠ": 8049,
      "data(": 8050,
      "plain": 8051,
      "(self,Ġ*args,Ġ**kwargs": 8052,
      "packages": 8053,
      "lookupĠ": 8054,
      "metaĠ": 8055,
      "productĠ": 8056,
      "warnings.": 8057,
      "foreign": 8058,
      "magic": 8059,
      "callbackĠfunction": 8060,
      "Feature": 8061,
      "status_codeĠ==Ġ": 8062,
      "77": 8063,
      "PR": 8064,
      "s.add(": 8065,
      "sĠtoĠuseĠ": 8066,
      "canv": 8067,
      "-1Ġ": 8068,
      "sys.stdout": 8069,
      "Series": 8070,
      "specifyĠtheĠ": 8071,
      "[key]": 8072,
      "migration": 8073,
      "-valueĠpair": 8074,
      "Develo": 8075,
      "anc": 8076,
      "s(self.": 8077,
      "siteĠ": 8078,
      "er.get_": 8079,
      "gene": 8080,
      "``ĠisĠnotĠfoundĊĠĠĠĠĠĠĠĠraise:ĠĠNullArgumentĠ-Ġ``": 8081,
      "(osid.proxy.Proxy": 8082,
      "sizeĠofĠtheĠ": 8083,
      "html_": 8084,
      "callĠtoĠ": 8085,
      "cls._": 8086,
      "clean_": 8087,
      "GR": 8088,
      "Lang": 8089,
      "`.Ġ": 8090,
      "pages": 8091,
      "wra": 8092,
      "dimĠ": 8093,
      "country": 8094,
      "weigh": 8095,
      "we'reĠ": 8096,
      "isĠnotĠaĠ": 8097,
      "']Ġ=Ġself.": 8098,
      "sudo": 8099,
      "sĠforĠthisĠ": 8100,
      ",ĠtheĠreturnedĠ": 8101,
      "root,Ġ": 8102,
      "sĠ=Ġ[]ĊĠĠĠĠĠĠĠĠ": 8103,
      "THEĠ": 8104,
      "thereĠisĠnoĠ": 8105,
      "horiz": 8106,
      "didĠnotĠ": 8107,
      "Sk": 8108,
      "Sin": 8109,
      "Sav": 8110,
      "])ĊĠĠĠĠ": 8111,
      "paramsĠ=Ġ{}": 8112,
      "forĊĠĠĠĠĠĠĠĠ": 8113,
      "proc": 8114,
      "ReturnsĊĠĠĠĠĠĠĠĠ-------ĊĠĠĠĠĠĠĠĠ": 8115,
      "wordĠ=Ġ": 8116,
      "usedĠbyĠ": 8117,
      "title_": 8118,
      "Setting": 8119,
      "layerĠ": 8120,
      "loopĠ": 8121,
      "resolution": 8122,
      "404": 8123,
      "symbo": 8124,
      "proxyĠ(osid.proxy.Proxy": 8125,
      "AA": 8126,
      "Jo": 8127,
      "Mapping": 8128,
      "Ph": 8129,
      "RFĠ": 8130,
      "S3Ġ": 8131,
      "ĺì": 8132,
      "rer": 8133,
      "\"\"\"Check": 8134,
      "toĠuse": 8135,
      "cir": 8136,
      "stantĠ": 8137,
      "gradeĠ": 8138,
      "\"],Ġ": 8139,
      "phrase": 8140,
      "vm": 8141,
      "w,Ġ": 8142,
      "then": 8143,
      "this_": 8144,
      "unchĠ": 8145,
      "\"\"\"ĊdefĠcreate_": 8146,
      "':Ġ{": 8147,
      "stringsĠ": 8148,
      ".ĊĊĠĠĠĠIfĠ": 8149,
      "fileĠinĠ": 8150,
      "message,Ġ": 8151,
      "Attem": 8152,
      "matchĠtheĠ": 8153,
      "collect": 8154,
      "contribut": 8155,
      "``OsidSession``Ġ": 8156,
      "\"ĊĠĠĠĠĠĠĠĠĠĠĠĠĠĠĠĠ": 8157,
      "RGB": 8158,
      "SER": 8159,
      "WA": 8160,
      "dc": 8161,
      "page.": 8162,
      "san": 8163,
      "Ġobject": 8164,
      "chainĠ": 8165,
      "pareĠ": 8166,
      "ĊĠĠĠĠĠĠĠĠĠĠĠĠĠĠĠĠĠĠĠĠĠĠĠĠ\"": 8167,
      "areĠnotĠ": 8168,
      "ignoreĠ": 8169,
      "other.": 8170,
      "replace('": 8171,
      "alignmentĠ": 8172,
      "activity_": 8173,
      "absolute": 8174,
      "Signal": 8175,
      "=''": 8176,
      "Fin": 8177,
      "fp.": 8178,
      "zo": 8179,
      "čĊĠĠ": 8180,
      "utc": 8181,
      "',Ġself._": 8182,
      "))ĊĊĠĠĠĠĠĠĠĠĠĠĠĠ": 8183,
      "minim": 8184,
      "class,Ġ": 8185,
      "=False):ĊĠĠĠĠĠĠĠĠ\"\"\"ĊĠĠĠĠĠĠĠĠ": 8186,
      "hasĠnoĠ": 8187,
      "s.ĊĊĠĠĠĠParametersĊĠĠĠĠ----------ĊĠĠĠĠ": 8188,
      "proxyĊĠĠĠĠĠĠĠĠreturn:Ġ(osid.": 8189,
      ")Ġ--AnĠattributeĠofĠtypeĠ": 8190,
      "limit=": 8191
    },
    "merges": [
      [
        "Ġ",
        "Ġ"
      ],
      [
        "ĠĠ",
        "ĠĠ"
      ],
      [
        "ĠĠĠĠ",
        "ĠĠĠĠ"
      ],
      [
        "Ċ",
        "ĠĠĠĠĠĠĠĠ"
      ],
      [
        "e",
        "Ġ"
      ],
      [
        "i",
        "n"
      ],
      [
        "o",
        "n"
      ],
      [
        "r",
        "e"
      ],
      [
        "a",
        "t"
      ],
      [
        "s",
        "e"
      ],
      [
        "s",
        "Ġ"
      ],
      [
        ",",
        "Ġ"
      ],
      [
        "t",
        "h"
      ],
      [
        "e",
        "r"
      ],
      [
        "o",
        "r"
      ],
      [
        "s",
        "t"
      ],
      [
        "\"",
        "\""
      ],
      [
        "e",
        "n"
      ],
      [
        "a",
        "r"
      ],
      [
        "f",
        "Ġ"
      ],
      [
        "Ċ",
        "ĠĠĠĠ"
      ],
      [
        "a",
        "l"
      ],
      [
        "t",
        "Ġ"
      ],
      [
        "a",
        "n"
      ],
      [
        "d",
        "Ġ"
      ],
      [
        "=",
        "Ġ"
      ],
      [
        "a",
        "m"
      ],
      [
        "d",
        "e"
      ],
      [
        "ĊĠĠĠĠĠĠĠĠ",
        "ĠĠĠĠ"
      ],
      [
        "i",
        "on"
      ],
      [
        "th",
        "eĠ"
      ],
      [
        "l",
        "e"
      ],
      [
        "u",
        "r"
      ],
      [
        ":",
        "Ġ"
      ],
      [
        "\"\"",
        "\""
      ],
      [
        "ĊĠĠĠĠĠĠĠĠ",
        "ĠĠĠĠĠĠĠĠ"
      ],
      [
        "se",
        "l"
      ],
      [
        "t",
        "o"
      ],
      [
        "c",
        "t"
      ],
      [
        "sel",
        "f"
      ],
      [
        "f",
        "i"
      ],
      [
        "in",
        "g"
      ],
      [
        "e",
        "t"
      ],
      [
        "i",
        "t"
      ],
      [
        "r",
        "o"
      ],
      [
        "c",
        "e"
      ],
      [
        "or",
        "Ġ"
      ],
      [
        "c",
        "o"
      ],
      [
        "-",
        "-"
      ],
      [
        "a",
        "Ġ"
      ],
      [
        "c",
        "h"
      ],
      [
        "y",
        "Ġ"
      ],
      [
        "self",
        "."
      ],
      [
        "i",
        "fĠ"
      ],
      [
        "l",
        "o"
      ],
      [
        "ur",
        "n"
      ],
      [
        "i",
        "sĠ"
      ],
      [
        "to",
        "Ġ"
      ],
      [
        "en",
        "t"
      ],
      [
        "s",
        "."
      ],
      [
        "u",
        "n"
      ],
      [
        "u",
        "e"
      ],
      [
        "l",
        "i"
      ],
      [
        "d",
        "at"
      ],
      [
        "Ġ",
        "=Ġ"
      ],
      [
        "a",
        "s"
      ],
      [
        "in",
        "Ġ"
      ],
      [
        "t",
        "e"
      ],
      [
        "p",
        "ar"
      ],
      [
        "re",
        "t"
      ],
      [
        "d",
        "i"
      ],
      [
        "o",
        "fĠ"
      ],
      [
        "r",
        "a"
      ],
      [
        "e",
        "l"
      ],
      [
        "Ċ",
        "ĊĠĠĠĠĠĠĠĠ"
      ],
      [
        "i",
        "d"
      ],
      [
        "n",
        "o"
      ],
      [
        "c",
        "on"
      ],
      [
        "p",
        "e"
      ],
      [
        "ret",
        "urn"
      ],
      [
        ")",
        ":"
      ],
      [
        "u",
        "l"
      ],
      [
        "i",
        "m"
      ],
      [
        "st",
        "r"
      ],
      [
        "v",
        "al"
      ],
      [
        "u",
        "m"
      ],
      [
        "am",
        "e"
      ],
      [
        "f",
        "orĠ"
      ],
      [
        "e",
        "x"
      ],
      [
        "ing",
        "Ġ"
      ],
      [
        "a",
        "d"
      ],
      [
        ")",
        "ĊĠĠĠĠĠĠĠĠ"
      ],
      [
        "`",
        "`"
      ],
      [
        "i",
        "s"
      ],
      [
        "u",
        "t"
      ],
      [
        "re",
        "s"
      ],
      [
        "par",
        "am"
      ],
      [
        "er",
        "Ġ"
      ],
      [
        "i",
        "l"
      ],
      [
        "Ċ",
        "ĊĠĠĠĠ"
      ],
      [
        "a",
        "b"
      ],
      [
        "a",
        "g"
      ],
      [
        "#",
        "Ġ"
      ],
      [
        "at",
        "ion"
      ],
      [
        ")",
        "Ġ"
      ],
      [
        "t",
        "y"
      ],
      [
        "u",
        "p"
      ],
      [
        "n",
        "ame"
      ],
      [
        "c",
        "k"
      ],
      [
        "an",
        "dĠ"
      ],
      [
        "e",
        "dĠ"
      ],
      [
        "return",
        "Ġ"
      ],
      [
        "e",
        "s"
      ],
      [
        "a",
        "p"
      ],
      [
        ":",
        "ĊĠĠĠĠĠĠĠĠĠĠĠĠ"
      ],
      [
        "on",
        "e"
      ],
      [
        "ar",
        "g"
      ],
      [
        "t",
        "r"
      ],
      [
        "e",
        "d"
      ],
      [
        "st",
        "Ġ"
      ],
      [
        "m",
        "o"
      ],
      [
        "de",
        "fĠ"
      ],
      [
        "p",
        "t"
      ],
      [
        "f",
        "or"
      ],
      [
        "l",
        "Ġ"
      ],
      [
        "se",
        "r"
      ],
      [
        "ct",
        "ion"
      ],
      [
        "\"\"\"",
        "Ċ"
      ],
      [
        "e",
        "m"
      ],
      [
        "no",
        "tĠ"
      ],
      [
        "N",
        "one"
      ],
      [
        "--",
        "--"
      ],
      [
        "o",
        "b"
      ],
      [
        "p",
        "o"
      ],
      [
        "k",
        "e"
      ],
      [
        "\"\"\"Ċ",
        "defĠ"
      ],
      [
        "T",
        "h"
      ],
      [
        "l",
        "eĠ"
      ],
      [
        "v",
        "er"
      ],
      [
        "in",
        "t"
      ],
      [
        "ĊĠĠĠĠĠĠĠĠ",
        "\"\"\""
      ],
      [
        "ĊĠĠĠĠĠĠĠĠĠĠĠĠĠĠĠĠ",
        "ĠĠĠĠĠĠĠĠ"
      ],
      [
        "p",
        "at"
      ],
      [
        "p",
        "ro"
      ],
      [
        "co",
        "m"
      ],
      [
        "param",
        "Ġ"
      ],
      [
        "m",
        "at"
      ],
      [
        ".",
        "Ġ"
      ],
      [
        "g",
        "et"
      ],
      [
        "(",
        "'"
      ],
      [
        "i",
        "v"
      ],
      [
        "dat",
        "a"
      ],
      [
        "q",
        "u"
      ],
      [
        "e",
        "_"
      ],
      [
        "i",
        "th"
      ],
      [
        ">",
        ">"
      ],
      [
        "(",
        ")"
      ],
      [
        "i",
        "g"
      ],
      [
        ":",
        "paramĠ"
      ],
      [
        "f",
        "a"
      ],
      [
        "m",
        "Ġ"
      ],
      [
        "c",
        "l"
      ],
      [
        "ob",
        "j"
      ],
      [
        "ĉ",
        "ĉ"
      ],
      [
        "an",
        "Ġ"
      ],
      [
        "d",
        "o"
      ],
      [
        "fi",
        "le"
      ],
      [
        "pat",
        "h"
      ],
      [
        "ĊĠĠĠĠĠĠĠĠĠĠĠĠĠĠĠĠ",
        "ĠĠĠĠ"
      ],
      [
        "p",
        "l"
      ],
      [
        "pt",
        "ion"
      ],
      [
        "t",
        "_"
      ],
      [
        "d",
        "_"
      ],
      [
        "self.",
        "_"
      ],
      [
        "s",
        "ion"
      ],
      [
        "c",
        "al"
      ],
      [
        "val",
        "ue"
      ],
      [
        "n",
        "e"
      ],
      [
        "e",
        "sĠ"
      ],
      [
        "b",
        "eĠ"
      ],
      [
        "m",
        "ent"
      ],
      [
        "m",
        "a"
      ],
      [
        ")",
        "ĊĠĠĠĠ"
      ],
      [
        "'",
        ",Ġ"
      ],
      [
        "o",
        "l"
      ],
      [
        "w",
        "ith"
      ],
      [
        "ty",
        "pe"
      ],
      [
        "f",
        "ro"
      ],
      [
        "r",
        "or"
      ],
      [
        "s",
        "_"
      ],
      [
        "en",
        "Ġ"
      ],
      [
        "[",
        "'"
      ],
      [
        "(",
        "self"
      ],
      [
        "'",
        "]"
      ],
      [
        "a",
        "sĠ"
      ],
      [
        "s",
        "h"
      ],
      [
        "e",
        "ct"
      ],
      [
        "-",
        "Ġ"
      ],
      [
        "ul",
        "t"
      ],
      [
        ">",
        "Ġ"
      ],
      [
        ":",
        "ĊĠĠĠĠĠĠĠĠ"
      ],
      [
        "ke",
        "y"
      ],
      [
        "v",
        "i"
      ],
      [
        "'",
        ":Ġ"
      ],
      [
        "r",
        "i"
      ],
      [
        "at",
        "Ġ"
      ],
      [
        "s",
        ",Ġ"
      ],
      [
        "sĠ",
        "=Ġ"
      ],
      [
        "re",
        "n"
      ],
      [
        "l",
        "en"
      ],
      [
        "i",
        "z"
      ],
      [
        "p",
        "er"
      ],
      [
        "u",
        "b"
      ],
      [
        "Th",
        "eĠ"
      ],
      [
        "c",
        "eĠ"
      ],
      [
        "t",
        "im"
      ],
      [
        "as",
        "s"
      ],
      [
        "w",
        "h"
      ],
      [
        "c",
        "i"
      ],
      [
        "st",
        "an"
      ],
      [
        "m",
        "e"
      ],
      [
        "am",
        "eĠ"
      ],
      [
        "Ġ",
        "inĠ"
      ],
      [
        "t",
        "er"
      ],
      [
        "b",
        "u"
      ],
      [
        "q",
        "ue"
      ],
      [
        "se",
        "t"
      ],
      [
        "str",
        "ing"
      ],
      [
        "li",
        "st"
      ],
      [
        "s",
        "eĠ"
      ],
      [
        "en",
        "d"
      ],
      [
        "b",
        "o"
      ],
      [
        "p",
        "a"
      ],
      [
        "con",
        "t"
      ],
      [
        "ofĠ",
        "theĠ"
      ],
      [
        ")",
        "ĊĠĠĠĠĠĠĠĠĠĠĠĠ"
      ],
      [
        "fro",
        "mĠ"
      ],
      [
        "with",
        "Ġ"
      ],
      [
        "p",
        "le"
      ],
      [
        "en",
        "tĠ"
      ],
      [
        "lo",
        "g"
      ],
      [
        ".",
        "ĊĊĠĠĠĠĠĠĠĠ"
      ],
      [
        "ch",
        "Ġ"
      ],
      [
        "):",
        "ĊĠĠĠĠĠĠĠĠ\"\"\""
      ],
      [
        "E",
        "r"
      ],
      [
        "s",
        "("
      ],
      [
        "o",
        "ur"
      ],
      [
        "co",
        "l"
      ],
      [
        "o",
        "ut"
      ],
      [
        "u",
        "eĠ"
      ],
      [
        "p",
        "or"
      ],
      [
        "l",
        "in"
      ],
      [
        "ap",
        "p"
      ],
      [
        "ab",
        "le"
      ],
      [
        "i",
        "st"
      ],
      [
        "T",
        "r"
      ],
      [
        "R",
        "et"
      ],
      [
        "y",
        "_"
      ],
      [
        "p",
        "eĠ"
      ],
      [
        "Ġ",
        "isĠ"
      ],
      [
        "at",
        "e"
      ],
      [
        "an",
        "d"
      ],
      [
        "get",
        "_"
      ],
      [
        "at",
        "eĠ"
      ],
      [
        "ce",
        "s"
      ],
      [
        "e",
        "c"
      ],
      [
        "f",
        "un"
      ],
      [
        ":",
        "ĊĠĠĠĠĠĠĠĠĠĠĠĠĠĠĠĠ"
      ],
      [
        "or",
        "d"
      ],
      [
        "n",
        "um"
      ],
      [
        "(",
        "\""
      ],
      [
        "ĊĠĠĠĠ",
        "\"\"\""
      ],
      [
        "(self",
        ",Ġ"
      ],
      [
        "'",
        "'"
      ],
      [
        "Ret",
        "urn"
      ],
      [
        "b",
        "a"
      ],
      [
        "*",
        "*"
      ],
      [
        "fi",
        "g"
      ],
      [
        "Er",
        "ror"
      ],
      [
        "'",
        "Ġ"
      ],
      [
        "an",
        "g"
      ],
      [
        "o",
        "u"
      ],
      [
        "f",
        "o"
      ],
      [
        "p",
        "re"
      ],
      [
        ".",
        "ĊĠĠĠĠĠĠĠĠ"
      ],
      [
        "+",
        "Ġ"
      ],
      [
        "on",
        "Ġ"
      ],
      [
        "for",
        "mat"
      ],
      [
        "ation",
        "Ġ"
      ],
      [
        "ty",
        "peĠ"
      ],
      [
        "i",
        "p"
      ],
      [
        "=",
        "=Ġ"
      ],
      [
        "obj",
        "ect"
      ],
      [
        "al",
        "Ġ"
      ],
      [
        "a",
        "v"
      ],
      [
        "is",
        "eĠ"
      ],
      [
        "in",
        "stan"
      ],
      [
        "ĠĠ",
        "Ġ"
      ],
      [
        "th",
        "atĠ"
      ],
      [
        ")",
        ")"
      ],
      [
        "I",
        "n"
      ],
      [
        "p",
        "on"
      ],
      [
        "Ċ",
        "ĉĉ"
      ],
      [
        "te",
        "x"
      ],
      [
        "_",
        "id"
      ],
      [
        "a",
        "u"
      ],
      [
        "s",
        "pe"
      ],
      [
        "h",
        "e"
      ],
      [
        "R",
        "e"
      ],
      [
        "p",
        "."
      ],
      [
        ">>",
        ">Ġ"
      ],
      [
        "que",
        "st"
      ],
      [
        "th",
        "isĠ"
      ],
      [
        "p",
        "y"
      ],
      [
        "i",
        "se"
      ],
      [
        "el",
        "se"
      ],
      [
        ",",
        "ĊĠĠĠĠĠĠĠĠĠĠĠĠ"
      ],
      [
        "i",
        "tĠ"
      ],
      [
        "l",
        "yĠ"
      ],
      [
        "Tr",
        "ue"
      ],
      [
        "i",
        "c"
      ],
      [
        "p",
        "ut"
      ],
      [
        "al",
        "se"
      ],
      [
        ".",
        "."
      ],
      [
        "p",
        "r"
      ],
      [
        "e",
        "."
      ],
      [
        "w",
        "Ġ"
      ],
      [
        "s",
        "c"
      ],
      [
        "th",
        "o"
      ],
      [
        ",",
        "ĊĠĠĠĠĠĠĠĠĠĠĠĠĠĠĠĠĠĠĠĠĠĠĠĠ"
      ],
      [
        "n",
        "ameĠ"
      ],
      [
        "=",
        "="
      ],
      [
        "o",
        "Ġ"
      ],
      [
        "ra",
        "iseĠ"
      ],
      [
        "et",
        "er"
      ],
      [
        "0",
        "0"
      ],
      [
        "mo",
        "de"
      ],
      [
        "c",
        "ur"
      ],
      [
        "con",
        "fig"
      ],
      [
        ".",
        "\"\"\"ĊdefĠ"
      ],
      [
        "re",
        "ad"
      ],
      [
        "_",
        "s"
      ],
      [
        "val",
        "ueĠ"
      ],
      [
        "dat",
        "aĠ"
      ],
      [
        "ar",
        "eĠ"
      ],
      [
        "e",
        "("
[...]
